{
  "version": "1.0",
  "truncation": null,
  "padding": null,
  "added_tokens": [
    {
      "id": 0,
      "content": "[PAD]",
      "single_word": false,
      "lstrip": false,
      "rstrip": false,
      "normalized": false,
      "special": true
    },
    {
      "id": 1,
      "content": "[UNK]",
      "single_word": false,
      "lstrip": false,
      "rstrip": false,
      "normalized": false,
      "special": true
    },
    {
      "id": 2,
      "content": "[MASK]",
      "single_word": false,
      "lstrip": false,
      "rstrip": false,
      "normalized": false,
      "special": true
    },
    {
      "id": 3,
      "content": "<|endoftext|>",
      "single_word": false,
      "lstrip": false,
      "rstrip": false,
      "normalized": false,
      "special": true
    }
  ],
  "normalizer": null,
  "pre_tokenizer": {
    "type": "ByteLevel",
    "add_prefix_space": true,
    "trim_offsets": true,
    "use_regex": true
  },
  "post_processor": {
    "type": "TemplateProcessing",
    "single": [
      {
        "Sequence": {
          "id": "A",
          "type_id": 0
        }
      }
    ],
    "pair": [
      {
        "Sequence": {
          "id": "A",
          "type_id": 0
        }
      },
      {
        "Sequence": {
          "id": "B",
          "type_id": 1
        }
      }
    ],
    "special_tokens": {}
  },
  "decoder": {
    "type": "ByteLevel",
    "add_prefix_space": true,
    "trim_offsets": true,
    "use_regex": true
  },
  "model": {
    "type": "BPE",
    "dropout": null,
    "unk_token": "[UNK]",
    "continuing_subword_prefix": null,
    "end_of_word_suffix": null,
    "fuse_unk": false,
    "byte_fallback": false,
    "ignore_merges": false,
    "vocab": {
      "[PAD]": 0,
      "[UNK]": 1,
      "[MASK]": 2,
      "<|endoftext|>": 3,
      "!": 4,
      "\"": 5,
      "#": 6,
      "$": 7,
      "%": 8,
      "&": 9,
      "'": 10,
      "(": 11,
      ")": 12,
      "*": 13,
      "+": 14,
      ",": 15,
      "-": 16,
      ".": 17,
      "/": 18,
      "0": 19,
      "1": 20,
      "2": 21,
      "3": 22,
      "4": 23,
      "5": 24,
      "6": 25,
      "7": 26,
      "8": 27,
      "9": 28,
      ":": 29,
      ";": 30,
      "<": 31,
      "=": 32,
      ">": 33,
      "?": 34,
      "@": 35,
      "A": 36,
      "B": 37,
      "C": 38,
      "D": 39,
      "E": 40,
      "F": 41,
      "G": 42,
      "H": 43,
      "I": 44,
      "J": 45,
      "K": 46,
      "L": 47,
      "M": 48,
      "N": 49,
      "O": 50,
      "P": 51,
      "Q": 52,
      "R": 53,
      "S": 54,
      "T": 55,
      "U": 56,
      "V": 57,
      "W": 58,
      "X": 59,
      "Y": 60,
      "Z": 61,
      "[": 62,
      "\\": 63,
      "]": 64,
      "^": 65,
      "_": 66,
      "`": 67,
      "a": 68,
      "b": 69,
      "c": 70,
      "d": 71,
      "e": 72,
      "f": 73,
      "g": 74,
      "h": 75,
      "i": 76,
      "j": 77,
      "k": 78,
      "l": 79,
      "m": 80,
      "n": 81,
      "o": 82,
      "p": 83,
      "q": 84,
      "r": 85,
      "s": 86,
      "t": 87,
      "u": 88,
      "v": 89,
      "w": 90,
      "x": 91,
      "y": 92,
      "z": 93,
      "{": 94,
      "|": 95,
      "}": 96,
      "~": 97,
      "¡": 98,
      "¢": 99,
      "£": 100,
      "¤": 101,
      "¥": 102,
      "¦": 103,
      "§": 104,
      "¨": 105,
      "©": 106,
      "ª": 107,
      "«": 108,
      "¬": 109,
      "®": 110,
      "¯": 111,
      "°": 112,
      "±": 113,
      "²": 114,
      "³": 115,
      "´": 116,
      "µ": 117,
      "¶": 118,
      "·": 119,
      "¸": 120,
      "¹": 121,
      "º": 122,
      "»": 123,
      "¼": 124,
      "½": 125,
      "¾": 126,
      "¿": 127,
      "À": 128,
      "Á": 129,
      "Â": 130,
      "Ã": 131,
      "Ä": 132,
      "Å": 133,
      "Æ": 134,
      "Ç": 135,
      "È": 136,
      "É": 137,
      "Ê": 138,
      "Ë": 139,
      "Ì": 140,
      "Í": 141,
      "Î": 142,
      "Ï": 143,
      "Ð": 144,
      "Ñ": 145,
      "Ò": 146,
      "Ó": 147,
      "Ô": 148,
      "Õ": 149,
      "Ö": 150,
      "×": 151,
      "Ø": 152,
      "Ù": 153,
      "Ú": 154,
      "Û": 155,
      "Ü": 156,
      "Ý": 157,
      "Þ": 158,
      "ß": 159,
      "à": 160,
      "á": 161,
      "â": 162,
      "ã": 163,
      "ä": 164,
      "å": 165,
      "æ": 166,
      "ç": 167,
      "è": 168,
      "é": 169,
      "ê": 170,
      "ë": 171,
      "ì": 172,
      "í": 173,
      "î": 174,
      "ï": 175,
      "ð": 176,
      "ñ": 177,
      "ò": 178,
      "ó": 179,
      "ô": 180,
      "õ": 181,
      "ö": 182,
      "÷": 183,
      "ø": 184,
      "ù": 185,
      "ú": 186,
      "û": 187,
      "ü": 188,
      "ý": 189,
      "þ": 190,
      "ÿ": 191,
      "Ā": 192,
      "ā": 193,
      "Ă": 194,
      "ă": 195,
      "Ą": 196,
      "ą": 197,
      "Ć": 198,
      "ć": 199,
      "Ĉ": 200,
      "ĉ": 201,
      "Ċ": 202,
      "ċ": 203,
      "Č": 204,
      "č": 205,
      "Ď": 206,
      "ď": 207,
      "Đ": 208,
      "đ": 209,
      "Ē": 210,
      "ē": 211,
      "Ĕ": 212,
      "ĕ": 213,
      "Ė": 214,
      "ė": 215,
      "Ę": 216,
      "ę": 217,
      "Ě": 218,
      "ě": 219,
      "Ĝ": 220,
      "ĝ": 221,
      "Ğ": 222,
      "ğ": 223,
      "Ġ": 224,
      "ġ": 225,
      "Ģ": 226,
      "ģ": 227,
      "Ĥ": 228,
      "ĥ": 229,
      "Ħ": 230,
      "ħ": 231,
      "Ĩ": 232,
      "ĩ": 233,
      "Ī": 234,
      "ī": 235,
      "Ĭ": 236,
      "ĭ": 237,
      "Į": 238,
      "į": 239,
      "İ": 240,
      "ı": 241,
      "Ĳ": 242,
      "ĳ": 243,
      "Ĵ": 244,
      "ĵ": 245,
      "Ķ": 246,
      "ķ": 247,
      "ĸ": 248,
      "Ĺ": 249,
      "ĺ": 250,
      "Ļ": 251,
      "ļ": 252,
      "Ľ": 253,
      "ľ": 254,
      "Ŀ": 255,
      "ŀ": 256,
      "Ł": 257,
      "ł": 258,
      "Ń": 259,
      "Ġt": 260,
      "he": 261,
      "Ġa": 262,
      "Ġs": 263,
      "Ġw": 264,
      "nd": 265,
      "Ġthe": 266,
      "ed": 267,
      "Ġb": 268,
      "Ġto": 269,
      "Ġand": 270,
      "Ġh": 271,
      "Ġf": 272,
      "in": 273,
      "ĠT": 274,
      "Ġwa": 275,
      "re": 276,
      "it": 277,
      "ou": 278,
      "Ġl": 279,
      "Ġd": 280,
      "Ġc": 281,
      "Ġp": 282,
      "ay": 283,
      "Ġm": 284,
      "er": 285,
      "Ġwas": 286,
      "om": 287,
      "ĠThe": 288,
      "Ġhe": 289,
      "is": 290,
      "Ġn": 291,
      "ar": 292,
      "on": 293,
      "im": 294,
      "Ġsa": 295,
      "id": 296,
      "ll": 297,
      "Ġha": 298,
      "Ġg": 299,
      "at": 300,
      "ĠS": 301,
      "ing": 302,
      "ot": 303,
      "en": 304,
      "an": 305,
      "le": 306,
      "or": 307,
      "ir": 308,
      "am": 309,
      "et": 310,
      "ĠH": 311,
      "Ġit": 312,
      "Ġth": 313,
      "ig": 314,
      "ĠThey": 315,
      "il": 316,
      "Ġin": 317,
      "Ġ\"": 318,
      "Ġpl": 319,
      "ĠHe": 320,
      "ow": 321,
      "ri": 322,
      "ver": 323,
      "ut": 324,
      "Ġbe": 325,
      "Ġu": 326,
      "Ġsaid": 327,
      "Ġplay": 328,
      "ith": 329,
      "Ġday": 330,
      "pp": 331,
      "Ġwith": 332,
      "Ġy": 333,
      "Ġo": 334,
      "On": 335,
      "oo": 336,
      "ked": 337,
      "Ġr": 338,
      "Ġher": 339,
      "ce": 340,
      "ĠI": 341,
      "ĠShe": 342,
      "ld": 343,
      "ĠTim": 344,
      "Ġhis": 345,
      "Ġst": 346,
      "ke": 347,
      "Ġe": 348,
      "Ġbig": 349,
      "ck": 350,
      "nt": 351,
      "Ġyou": 352,
      "very": 353,
      "st": 354,
      "ve": 355,
      "ĠOn": 356,
      "end": 357,
      "Ġon": 358,
      "un": 359,
      "Ġhapp": 360,
      "ĠL": 361,
      "riend": 362,
      "Ġfriend": 363,
      "all": 364,
      "ily": 365,
      "Ġthey": 366,
      "Ġwe": 367,
      "Ġhad": 368,
      "Ġnot": 369,
      "Ġup": 370,
      "Ġli": 371,
      "her": 372,
      "Ġwant": 373,
      "Ġof": 374,
      "ad": 375,
      "ĠB": 376,
      "itt": 377,
      "se": 378,
      "Ġdo": 379,
      "ĠM": 380,
      "Ġhappy": 381,
      "es": 382,
      "ent": 383,
      "Ġvery": 384,
      "'s": 385,
      "Ġthat": 386,
      "Ġsaw": 387,
      "ould": 388,
      "Ġfor": 389,
      "Ġsh": 390,
      "Ġmom": 391,
      "ittle": 392,
      "Ġso": 393,
      "Ġlittle": 394,
      "Ġshe": 395,
      ".\"": 396,
      "ime": 397,
      "Ġne": 398,
      "ch": 399,
      "Ġnam": 400,
      "Ġtime": 401,
      "Ġk": 402,
      "ound": 403,
      "Ġthere": 404,
      "ĠLily": 405,
      "Ġnamed": 406,
      "Ġsm": 407,
      "Ġwere": 408,
      "Ġbo": 409,
      "!\"": 410,
      "Ġwanted": 411,
      "ĠTom": 412,
      "out": 413,
      "Ġfriends": 414,
      "Ġbut": 415,
      "The": 416,
      "ved": 417,
      "ht": 418,
      "el": 419,
      "ird": 420,
      "ake": 421,
      "al": 422,
      "Ġan": 423,
      "Ġbird": 424,
      "ome": 425,
      "ug": 426,
      "Ġtoo": 427,
      "ĠIt": 428,
      "Ġwh": 429,
      "ide": 430,
      "Ġwent": 431,
      "Ġhel": 432,
      "ĠOnce": 433,
      "Ġis": 434,
      "ue": 435,
      "Ġall": 436,
      "Ġhelp": 437,
      "ĠA": 438,
      "Ġloo": 439,
      "Ġlo": 440,
      "Ġupon": 441,
      "ry": 442,
      "ter": 443,
      "ore": 444,
      "ill": 445,
      "get": 446,
      "Ġfun": 447,
      "ind": 448,
      "ĠOne": 449,
      "Ġtoy": 450,
      "ame": 451,
      "Ġas": 452,
      "Ġj": 453,
      "Ġat": 454,
      "Ġdid": 455,
      "ra": 456,
      "gether": 457,
      "ur": 458,
      "Ġre": 459,
      "Ġtogether": 460,
      "Ġse": 461,
      "ack": 462,
      "Ġtre": 463,
      "Ġcat": 464,
      "ly": 465,
      "ood": 466,
      "ic": 467,
      "Ġdog": 468,
      "ted": 469,
      "Ġcould": 470,
      "Ġcan": 471,
      "Ġtheir": 472,
      "ard": 473,
      "ark": 474,
      "?\"": 475,
      "ec": 476,
      "Ġgir": 477,
      "Ġhim": 478,
      "Ġplayed": 479,
      "Ġgirl": 480,
      "'t": 481,
      "Ġball": 482,
      "way": 483,
      "Ġgo": 484,
      "my": 485,
      "Ġro": 486,
      "Ġare": 487,
      "hed": 488,
      "Ġout": 489,
      "ain": 490,
      "Ġkn": 491,
      "hen": 492,
      "ax": 493,
      "Ġle": 494,
      "Ġfr": 495,
      "Ġthem": 496,
      "um": 497,
      "Ġsad": 498,
      "Ġtree": 499,
      "ul": 500,
      "Ġhave": 501,
      "Ġboy": 502,
      "Ġcl": 503,
      "other": 504,
      "Ġman": 505,
      "Ġloved": 506,
      "Ġlooked": 507,
      "oug": 508,
      "Ġfound": 509,
      "Ġsp": 510,
      "Ġstar": 511,
      "one": 512,
      "ĠSue": 513,
      "hing": 514,
      "ĠMax": 515,
      "Ġsc": 516,
      "Ġback": 517,
      "own": 518,
      "Ġlike": 519,
      "are": 520,
      "Ġme": 521,
      "side": 522,
      "ful": 523,
      "Ġbec": 524,
      "One": 525,
      "ong": 526,
      "ight": 527,
      "Ġpark": 528,
      "Ġcar": 529,
      "elt": 530,
      "Ġwould": 531,
      "op": 532,
      "Ġliked": 533,
      "round": 534,
      "Ġmake": 535,
      "Ġla": 536,
      "You": 537,
      "Ġfelt": 538,
      "ĠW": 539,
      "ĠBen": 540,
      "Ġsee": 541,
      "Ġfa": 542,
      "ell": 543,
      "omet": 544,
      "ĠBut": 545,
      "Ġno": 546,
      "ouse": 547,
      "ag": 548,
      "ĠSam": 549,
      "Ġnew": 550,
      "Ġasked": 551,
      "Ġstarted": 552,
      "ared": 553,
      "ice": 554,
      "Ġcame": 555,
      "Ġal": 556,
      "iled": 557,
      "Ġother": 558,
      "ought": 559,
      "Ġsomet": 560,
      "Ġag": 561,
      "Ġgood": 562,
      "ss": 563,
      "Ġsay": 564,
      "Ġsmall": 565,
      "Ġsmiled": 566,
      "Ġbr": 567,
      "ade": 568,
      "ried": 569,
      "ings": 570,
      "ob": 571,
      "pot": 572,
      "Ġex": 573,
      "Ġwor": 574,
      "Ġaway": 575,
      "Ġput": 576,
      "Ġfind": 577,
      "ty": 578,
      "Ġmade": 579,
      "Ġwhat": 580,
      "Ġsomething": 581,
      "Ġco": 582,
      "Ġhome": 583,
      "ened": 584,
      "Ġthought": 585,
      "Ġfrom": 586,
      "ĠJ": 587,
      "Ġwal": 588,
      "Ġplaying": 589,
      "ia": 590,
      "ook": 591,
      "Ġevery": 592,
      "ach": 593,
      "Ġmu": 594,
      "ĠSpot": 595,
      "uc": 596,
      "Ġran": 597,
      "arn": 598,
      "ĠF": 599,
      "ie": 600,
      "ile": 601,
      "dd": 602,
      "Ġagain": 603,
      "Ġsome": 604,
      "Ġhouse": 605,
      "Ġdown": 606,
      "ave": 607,
      "king": 608,
      "Ġlaug": 609,
      "ure": 610,
      "Ġscared": 611,
      "ny": 612,
      "Ġfl": 613,
      "Ġtook": 614,
      "ep": 615,
      "if": 616,
      "ick": 617,
      "Ġpr": 618,
      "Ġwill": 619,
      "ĠYou": 620,
      "Ġbox": 621,
      "Ġaround": 622,
      "Ġlearn": 623,
      "ab": 624,
      "Ġbl": 625,
      "Ġtoys": 626,
      "ret": 627,
      "Ġmy": 628,
      "Ġthings": 629,
      "Ġyour": 630,
      ",\"": 631,
      "oud": 632,
      "Ġsun": 633,
      "ish": 634,
      "Ġwhen": 635,
      "Ġlived": 636,
      "Ġthen": 637,
      "Ġsw": 638,
      "Ġfe": 639,
      "uck": 640,
      "as": 641,
      "pped": 642,
      "Ġch": 643,
      "Ġab": 644,
      "ank": 645,
      "us": 646,
      "Ġget": 647,
      "ĠMia": 648,
      "ucy": 649,
      "Ġlot": 650,
      "oth": 651,
      "ump": 652,
      "Th": 653,
      "ap": 654,
      "ist": 655,
      "Ġsays": 656,
      "ited": 657,
      "Ġknow": 658,
      "Ġtried": 659,
      "Ġwho": 660,
      "Tim": 661,
      "Ġgot": 662,
      "ust": 663,
      "ew": 664,
      "nder": 665,
      "Ġmany": 666,
      "Ġint": 667,
      "Ġabout": 668,
      "Ġpret": 669,
      "ĠD": 670,
      "ise": 671,
      "Ġany": 672,
      "Ġdec": 673,
      "ive": 674,
      "Ġmore": 675,
      "Ġknew": 676,
      "Ġpic": 677,
      "ous": 678,
      "qu": 679,
      "Ġhug": 680,
      "Ġred": 681,
      "ace": 682,
      "Ġpo": 683,
      "Ġcare": 684,
      "ally": 685,
      "ĠLucy": 686,
      "Ġv": 687,
      "Ġwater": 688,
      "Ġbest": 689,
      "au": 690,
      "urp": 691,
      "Ġbecame": 692,
      "Ġexc": 693,
      "fter": 694,
      "Ġlearned": 695,
      "ways": 696,
      "Ġop": 697,
      "ause": 698,
      "Ġalways": 699,
      "ĠBob": 700,
      "Ġoutside": 701,
      "Ġlook": 702,
      "Ġshow": 703,
      "Ġlaughed": 704,
      "Ġgre": 705,
      "Ġho": 706,
      "Ġdecid": 707,
      "Ġun": 708,
      "Ġroom": 709,
      "ĠMom": 710,
      "Ġeat": 711,
      "Ġdecided": 712,
      "Ġboth": 713,
      "Ġbecause": 714,
      "ĠSo": 715,
      "ĠAnd": 716,
      "ant": 717,
      "Ġinto": 718,
      "ite": 719,
      "fe": 720,
      "Ġjump": 721,
      "ers": 722,
      "udd": 723,
      "Ġke": 724,
      "They": 725,
      "Ġexcited": 726,
      "Ġpe": 727,
      "Ġdad": 728,
      "Ġone": 729,
      "Ġthis": 730,
      "nn": 731,
      "Ġnice": 732,
      "Lily": 733,
      "Ġfast": 734,
      "Ġrun": 735,
      "Ġlong": 736,
      "Yes": 737,
      "ĠE": 738,
      "Ġfeel": 739,
      "urpr": 740,
      "our": 741,
      "Ġsk": 742,
      "Ġsurpr": 743,
      "Ġam": 744,
      "Ġtold": 745,
      "ull": 746,
      "ink": 747,
      "Ġinside": 748,
      "iny": 749,
      "Ġmo": 750,
      "Ġtr": 751,
      "Ġpretty": 752,
      "Ġsor": 753,
      "Ġgra": 754,
      "Ġtake": 755,
      "Ġsl": 756,
      "Wh": 757,
      "Ġeach": 758,
      "nna": 759,
      "lew": 760,
      "Ġrock": 761,
      "Ġmuch": 762,
      "ged": 763,
      "og": 764,
      "Ġgave": 765,
      "Ġstr": 766,
      "Ġneed": 767,
      "Ġhow": 768,
      "Ġthan": 769,
      "But": 770,
      "Ġor": 771,
      "Ġtow": 772,
      "ven": 773,
      "ĠC": 774,
      "imal": 775,
      "ara": 776,
      "Ġanimal": 777,
      "etter": 778,
      "Ġunder": 779,
      "Ġsorry": 780,
      "Tom": 781,
      "Ġold": 782,
      "ge": 783,
      "ess": 784,
      "urt": 785,
      "Ġwalked": 786,
      "and": 787,
      "ro": 788,
      "ised": 789,
      "Ġclo": 790,
      "ase": 791,
      "Ġhand": 792,
      "Ġbear": 793,
      "Ġfish": 794,
      "Ġcle": 795,
      "ft": 796,
      "ast": 797,
      "here": 798,
      "urn": 799,
      "ĠWe": 800,
      "Ġkind": 801,
      "Ġjust": 802,
      "Ġdidn": 803,
      "Ġflow": 804,
      "pl": 805,
      "Ġfood": 806,
      "Ġte": 807,
      "Ġwat": 808,
      "Ġide": 809,
      "ĠHis": 810,
      "Ġhappened": 811,
      "rom": 812,
      "Ġtry": 813,
      "Ġlist": 814,
      "ched": 815,
      "Ġsn": 816,
      "Ġhig": 817,
      "Ġfi": 818,
      "Ġidea": 819,
      "Ġsky": 820,
      "ine": 821,
      "ff": 822,
      "Ġnear": 823,
      "Ġanimals": 824,
      "Ġus": 825,
      "ving": 826,
      "Ġheard": 827,
      "Ġbug": 828,
      "Ġtw": 829,
      "Ġits": 830,
      "Ġbetter": 831,
      "ĠAmy": 832,
      "Ġlet": 833,
      "Ġen": 834,
      "gry": 835,
      "ate": 836,
      "pec": 837,
      "able": 838,
      "Ġshare": 839,
      "ĠTh": 840,
      "Ġif": 841,
      "Thank": 842,
      "Ġstor": 843,
      "ex": 844,
      "ial": 845,
      "lf": 846,
      "Ġcom": 847,
      "Ġcareful": 848,
      "Ġflew": 849,
      "ĠAnna": 850,
      "Mom": 851,
      "Ġspec": 852,
      "Ġspecial": 853,
      "ion": 854,
      "Ġdan": 855,
      "more": 856,
      "Ġanymore": 857,
      "Ġlots": 858,
      "Ġfly": 859,
      "Ġdon": 860,
      "Ġnever": 861,
      "Ġby": 862,
      "Ġfo": 863,
      "ream": 864,
      "Ġlove": 865,
      "Ġwind": 866,
      "Ġshiny": 867,
      "Ġend": 868,
      "Ġeven": 869,
      "Ġbu": 870,
      "ĠThen": 871,
      "Ġgr": 872,
      "Ġtal": 873,
      "udden": 874,
      "rm": 875,
      "ort": 876,
      "Ġfore": 877,
      "Ġmag": 878,
      "ber": 879,
      "Ġclean": 880,
      "Ġcake": 881,
      "Ġover": 882,
      "Ġbook": 883,
      "ak": 884,
      "imb": 885,
      "Ġturn": 886,
      "Ġhard": 887,
      "uddenly": 888,
      "Ġfam": 889,
      "ople": 890,
      "Ġclimb": 891,
      "Ġcol": 892,
      "Ġcome": 893,
      "ĠEvery": 894,
      "ĠSara": 895,
      "'m": 896,
      "Ġhurt": 897,
      "Ġbad": 898,
      "Ġafter": 899,
      "Let": 900,
      "Ġdoor": 901,
      "Ġhigh": 902,
      "Ġsurprised": 903,
      "pected": 904,
      "Ġproud": 905,
      "Ġgl": 906,
      "Ġsafe": 907,
      "Ġcu": 908,
      "Ġpicked": 909,
      "ady": 910,
      "Ġopened": 911,
      "Ġground": 912,
      "Ġche": 913,
      "bb": 914,
      "expected": 915,
      "Ġunexpected": 916,
      "Ġloud": 917,
      "arden": 918,
      "Ġway": 919,
      "Ġgarden": 920,
      "Ġim": 921,
      "ild": 922,
      "Ġpeople": 923,
      "Ġthanked": 924,
      "As": 925,
      "Ġhugged": 926,
      "ĠFrom": 927,
      "Ġstill": 928,
      "Ġblue": 929,
      "Ġgive": 930,
      "iz": 931,
      "Ġcolor": 932,
      "Ġever": 933,
      "ail": 934,
      "Ġfar": 935,
      "ĠK": 936,
      "Ġcall": 937,
      "No": 938,
      "ĠWhen": 939,
      "ĠHer": 940,
      "ummy": 941,
      "Ġoff": 942,
      "Ġmagic": 943,
      "ip": 944,
      "ough": 945,
      "Ġfamily": 946,
      "age": 947,
      "Ġjumped": 948,
      "ool": 949,
      "Ġwalk": 950,
      "Ġkid": 951,
      "Ġsmile": 952,
      "les": 953,
      "uff": 954,
      "kay": 955,
      "Ġqu": 956,
      "ĠIn": 957,
      "ture": 958,
      "Ġshould": 959,
      "Ġnow": 960,
      "hes": 961,
      "Ġstay": 962,
      "itty": 963,
      "Ġplace": 964,
      "Ġpar": 965,
      "aut": 966,
      "Ġsto": 967,
      "Ġunt": 968,
      "ĠP": 969,
      "Ġforest": 970,
      "ning": 971,
      "em": 972,
      "Ġstrong": 973,
      "ct": 974,
      "Ġgreat": 975,
      "Ġbra": 976,
      "Ġsqu": 977,
      "ane": 978,
      "Ġbeaut": 979,
      "Ġuntil": 980,
      "xt": 981,
      "aking": 982,
      "Ġstick": 983,
      "lease": 984,
      "Ġnext": 985,
      "oon": 986,
      "dy": 987,
      "Ġhappily": 988,
      "Ġbro": 989,
      "Ġapp": 990,
      "Ġkids": 991,
      "unny": 992,
      "Ġfrog": 993,
      "Ġclos": 994,
      "be": 995,
      "iful": 996,
      "Ġbeautiful": 997,
      "oy": 998,
      "Ġpicture": 999,
      "rel": 1000,
      "ies": 1001,
      "Ġlisten": 1002,
      "Ġwhile": 1003,
      "Ġstory": 1004,
      "Ġshowed": 1005,
      "th": 1006,
      "Ġrain": 1007,
      "Ġhelped": 1008,
      "ress": 1009,
      "Ġimp": 1010,
      "Ġbeing": 1011,
      "pt": 1012,
      "Ġtown": 1013,
      "Ġdra": 1014,
      "Ġwo": 1015,
      "Ġmet": 1016,
      "Ġeveryone": 1017,
      "Ġad": 1018,
      "Ġtra": 1019,
      "ree": 1020,
      "Ġboat": 1021,
      "Ġmor": 1022,
      "by": 1023,
      "Ġcalled": 1024,
      "It": 1025,
      "ary": 1026,
      "Ġstopped": 1027,
      "Ġgame": 1028,
      "Now": 1029,
      "Ġhat": 1030,
      "uffy": 1031,
      "He": 1032,
      "Ġrem": 1033,
      "Ġsoft": 1034,
      "Ġmouse": 1035,
      "Ġyummy": 1036,
      "Can": 1037,
      "Ġopen": 1038,
      "Ġbed": 1039,
      "Ġkeep": 1040,
      "vent": 1041,
      "Ġcry": 1042,
      "When": 1043,
      "ĠR": 1044,
      "ĠLet": 1045,
      "Ġwatch": 1046,
      "ger": 1047,
      "ĠKitty": 1048,
      "Ġangry": 1049,
      "Ġbrave": 1050,
      "Ġtruck": 1051,
      "Ġate": 1052,
      "ĠWh": 1053,
      "Ġcouldn": 1054,
      "dded": 1055,
      "so": 1056,
      "Ġflowers": 1057,
      "Ġfell": 1058,
      "ished": 1059,
      "fore": 1060,
      "Ġde": 1061,
      "Ġlost": 1062,
      "bit": 1063,
      "Ġnoise": 1064,
      "Ġdoll": 1065,
      "Ġwhere": 1066,
      "Ġalso": 1067,
      "gan": 1068,
      "ĠSally": 1069,
      "Ġwarm": 1070,
      "abbit": 1071,
      "ock": 1072,
      "ble": 1073,
      "Ġgreen": 1074,
      "Ġrabbit": 1075,
      "Ġleave": 1076,
      "Ġtwo": 1077,
      "Ġface": 1078,
      "irrel": 1079,
      "What": 1080,
      "iss": 1081,
      "irst": 1082,
      "Ġsoon": 1083,
      "self": 1084,
      "luffy": 1085,
      "Ġslide": 1086,
      "Ġsquirrel": 1087,
      "illy": 1088,
      "az": 1089,
      "owl": 1090,
      "Ġexpl": 1091,
      "Ġhole": 1092,
      "Ġhear": 1093,
      "Ġhands": 1094,
      "Hi": 1095,
      "Ġbefore": 1096,
      "ired": 1097,
      "Ġsat": 1098,
      "Ġkept": 1099,
      "Ġnodded": 1100,
      "Look": 1101,
      "Ġpain": 1102,
      "ma": 1103,
      "Ġpus": 1104,
      "That": 1105,
      "leep": 1106,
      "Ġpa": 1107,
      "Ġey": 1108,
      "Then": 1109,
      "ear": 1110,
      "aybe": 1111,
      "Ġcook": 1112,
      "Ġuse": 1113,
      "day": 1114,
      "Ġbre": 1115,
      "Ġbirds": 1116,
      "Ġgoing": 1117,
      "Ġstore": 1118,
      "Ġfin": 1119,
      "Ġhaving": 1120,
      "ĠFluffy": 1121,
      "ĠJo": 1122,
      "Ġcatch": 1123,
      "Ġfix": 1124,
      "Ġbunny": 1125,
      "Ġpond": 1126,
      "Ġfunny": 1127,
      "ange": 1128,
      "Ġused": 1129,
      "Ġour": 1130,
      "Ġthink": 1131,
      "Ġlooking": 1132,
      "Ġsing": 1133,
      "Ġtired": 1134,
      "thing": 1135,
      "uch": 1136,
      "itc": 1137,
      "Ġwr": 1138,
      "Ġhas": 1139,
      "Ġsound": 1140,
      "Ġcra": 1141,
      "ĠNow": 1142,
      "ĠCan": 1143,
      "aug": 1144,
      "aught": 1145,
      "Ġsunny": 1146,
      "Ġmean": 1147,
      "Ġyell": 1148,
      "Ġjo": 1149,
      "We": 1150,
      "Ġthr": 1151,
      "air": 1152,
      "Ġwait": 1153,
      "Ġothers": 1154,
      "Ġwork": 1155,
      "Ġbus": 1156,
      "Ġbeh": 1157,
      "ĠG": 1158,
      "Ġkitc": 1159,
      "Ġkitchen": 1160,
      "Ġmommy": 1161,
      "Ġhead": 1162,
      "Ġask": 1163,
      "ting": 1164,
      "Ġeyes": 1165,
      "joy": 1166,
      "Ġpull": 1167,
      "ĠJack": 1168,
      "uit": 1169,
      "Ġtri": 1170,
      "rew": 1171,
      "led": 1172,
      "Ġpie": 1173,
      "Ġflo": 1174,
      "ember": 1175,
      "Hell": 1176,
      "Hello": 1177,
      "Ġtalk": 1178,
      "ng": 1179,
      "Ġdif": 1180,
      "Ġfav": 1181,
      "Ġvo": 1182,
      "Ġdr": 1183,
      "ious": 1184,
      "Ġfirst": 1185,
      "Ġcuri": 1186,
      "Ġduck": 1187,
      "Ġright": 1188,
      "Ġenjoy": 1189,
      "Ġadvent": 1190,
      "Ġcon": 1191,
      "Ġmon": 1192,
      "Ġreal": 1193,
      "imes": 1194,
      "Ġz": 1195,
      "Ġmess": 1196,
      "Ġflower": 1197,
      "zy": 1198,
      "Ġimport": 1199,
      "ĠDo": 1200,
      "Ġhill": 1201,
      "Ġsand": 1202,
      "Ġsleep": 1203,
      "orn": 1204,
      "Ġremember": 1205,
      "Ġokay": 1206,
      "Ġrace": 1207,
      "Ġcurious": 1208,
      "Ġcold": 1209,
      "ath": 1210,
      "Ġhop": 1211,
      "eet": 1212,
      "ac": 1213,
      "Ġmoral": 1214,
      "Ġmaking": 1215,
      "Ġbright": 1216,
      "Ġdir": 1217,
      "Ġshared": 1218,
      "llow": 1219,
      "reed": 1220,
      "At": 1221,
      "Ben": 1222,
      "Ġbag": 1223,
      "Ġimportant": 1224,
      "Ġhid": 1225,
      "Ġtall": 1226,
      "ount": 1227,
      "Ġparty": 1228,
      "Ġdress": 1229,
      "Ġworked": 1230,
      "Ġsurprise": 1231,
      "Ġbegan": 1232,
      "ĠFin": 1233,
      "Ġcla": 1234,
      "Ġyard": 1235,
      "Ġfavor": 1236,
      "Ġrest": 1237,
      "ster": 1238,
      "Ġhere": 1239,
      "Ġthing": 1240,
      "que": 1241,
      "Ġfavorite": 1242,
      "Don": 1243,
      "hn": 1244,
      "Ġdis": 1245,
      "Ġgrass": 1246,
      "aper": 1247,
      "Ġown": 1248,
      "Ġagreed": 1249,
      "Ġblock": 1250,
      "Wow": 1251,
      "Ġbel": 1252,
      "lly": 1253,
      "ect": 1254,
      "Ġfollow": 1255,
      "co": 1256,
      "Ġdraw": 1257,
      "Ġwatched": 1258,
      "Ġtrees": 1259,
      "Ġcut": 1260,
      "Ġice": 1261,
      "Ġtop": 1262,
      "Ġnight": 1263,
      "Ġpick": 1264,
      "Ġdark": 1265,
      "Ġtell": 1266,
      "Ġwalking": 1267,
      "ĠThis": 1268,
      "Ġhot": 1269,
      "Ġworry": 1270,
      "Ġri": 1271,
      "Ġbehind": 1272,
      "Ġstop": 1273,
      "Ġhun": 1274,
      "Ġmove": 1275,
      "Ġvoice": 1276,
      "ied": 1277,
      "Ġru": 1278,
      "Ġfloor": 1279,
      "Ġsong": 1280,
      "Ġtable": 1281,
      "isy": 1282,
      "ĠDad": 1283,
      "Ġtail": 1284,
      "Ġforg": 1285,
      "Ġturned": 1286,
      "Ġread": 1287,
      "Ġfarm": 1288,
      "Ġplease": 1289,
      "Ġsho": 1290,
      "Ġcolors": 1291,
      "After": 1292,
      "Ġdoes": 1293,
      "fere": 1294,
      "Ġadventure": 1295,
      "Ġdiffere": 1296,
      "Ġneeded": 1297,
      "Max": 1298,
      "Ġcars": 1299,
      "ĠMr": 1300,
      "aring": 1301,
      "Ġcloser": 1302,
      "Ġshout": 1303,
      "Ġlion": 1304,
      "ign": 1305,
      "Ġdel": 1306,
      "Ġsweet": 1307,
      "ĠSuddenly": 1308,
      "Why": 1309,
      "Ġleaves": 1310,
      "Ġpaper": 1311,
      "Ġcried": 1312,
      "Ġlaugh": 1313,
      "Ġfire": 1314,
      "Ġfeeling": 1315,
      "Ġlady": 1316,
      "ered": 1317,
      "Ġtast": 1318,
      "Ġwet": 1319,
      "Ġfull": 1320,
      "Ġswing": 1321,
      "Ġwood": 1322,
      "Ġfriendly": 1323,
      "bo": 1324,
      "Sue": 1325,
      "Ġroll": 1326,
      "Ġdifferent": 1327,
      "Ġpiece": 1328,
      "Ġcr": 1329,
      "Ġhungry": 1330,
      "Ġclimbed": 1331,
      "ached": 1332,
      "ĠAs": 1333,
      "ike": 1334,
      "Ġdance": 1335,
      "Ġbutter": 1336,
      "ient": 1337,
      "Ġyellow": 1338,
      "Ġprin": 1339,
      "ken": 1340,
      "ĠThat": 1341,
      "Ġtouch": 1342,
      "Ġrunning": 1343,
      "oom": 1344,
      "bye": 1345,
      "Ġplan": 1346,
      "Ġper": 1347,
      "Ġwonder": 1348,
      "Ġbroken": 1349,
      "cked": 1350,
      "Ġdanc": 1351,
      "Ġlight": 1352,
      "where": 1353,
      "ĠBobo": 1354,
      "ĠJane": 1355,
      "Ġhair": 1356,
      "ater": 1357,
      "Ġswim": 1358,
      "Ġprom": 1359,
      "Ġonly": 1360,
      "Ġgone": 1361,
      "She": 1362,
      "ppy": 1363,
      "Ġlistened": 1364,
      "Ġready": 1365,
      "Ġanother": 1366,
      "Ġfruit": 1367,
      "Ġhold": 1368,
      "Ġblocks": 1369,
      "Ġpretend": 1370,
      "bbed": 1371,
      "Suddenly": 1372,
      "Ġant": 1373,
      "Ġsmell": 1374,
      "ndma": 1375,
      "Ġreached": 1376,
      "Ġhelping": 1377,
      "aby": 1378,
      "Ġclose": 1379,
      "So": 1380,
      "Ġamaz": 1381,
      "Ġglad": 1382,
      "ins": 1383,
      "Ġsees": 1384,
      "sh": 1385,
      "ĠTimmy": 1386,
      "Ġslow": 1387,
      "Ġcool": 1388,
      "Ġgoodbye": 1389,
      "Ġbeen": 1390,
      "ather": 1391,
      "Ġrepl": 1392,
      "Ġsnow": 1393,
      "ila": 1394,
      "Ġpu": 1395,
      "iced": 1396,
      "Sam": 1397,
      "Ġstuck": 1398,
      "af": 1399,
      "Ġsit": 1400,
      "ĠO": 1401,
      "Ġless": 1402,
      "Ġdri": 1403,
      "ĠAll": 1404,
      "ĠEveryone": 1405,
      "av": 1406,
      "Ġexplore": 1407,
      "oney": 1408,
      "Ġname": 1409,
      "ee": 1410,
      "Ġwall": 1411,
      "Ġar": 1412,
      "Ġtrying": 1413,
      "Ġwindow": 1414,
      "Ġmoment": 1415,
      "'re": 1416,
      "Ġac": 1417,
      "Ġquick": 1418,
      "Ġbaby": 1419,
      "Ġste": 1420,
      "red": 1421,
      "Ġmight": 1422,
      "Ġbit": 1423,
      "aisy": 1424,
      "Ġmust": 1425,
      "Ġbuy": 1426,
      "Ġpushed": 1427,
      "Ġcoming": 1428,
      "Ġlooks": 1429,
      "Ġapple": 1430,
      "Ġwag": 1431,
      "Ġdone": 1432,
      "Ġchild": 1433,
      "amp": 1434,
      "Ġwished": 1435,
      "Ġheld": 1436,
      "Ġdin": 1437,
      "Ġbooks": 1438,
      "Ġfight": 1439,
      "Ġdream": 1440,
      "icy": 1441,
      "Ġcream": 1442,
      "Ġbar": 1443,
      "ized": 1444,
      "Ġhide": 1445,
      "Ġfair": 1446,
      "Ġunderst": 1447,
      "Ġdirty": 1448,
      "key": 1449,
      "Ġperf": 1450,
      "Ġdoing": 1451,
      "Mia": 1452,
      "ames": 1453,
      "Ġthank": 1454,
      "Ġdro": 1455,
      "Ġcloud": 1456,
      "Ġfall": 1457,
      "Ġballoon": 1458,
      "Ġscary": 1459,
      "ott": 1460,
      "andy": 1461,
      "Ġbutterf": 1462,
      "Ġreach": 1463,
      "ash": 1464,
      "Ġwhy": 1465,
      "Ġleft": 1466,
      "Ġthrough": 1467,
      "ĠThere": 1468,
      "ely": 1469,
      "In": 1470,
      "Ġbuild": 1471,
      "Ġclapped": 1472,
      "Ġmat": 1473,
      "ield": 1474,
      "Ġsure": 1475,
      "Ġtiny": 1476,
      "Ġmar": 1477,
      "Ġsometimes": 1478,
      "Ġwin": 1479,
      "Ġair": 1480,
      "Ġreplied": 1481,
      "Ġshouted": 1482,
      "Ġthree": 1483,
      "Ġcount": 1484,
      "Ġspl": 1485,
      "Ġgrow": 1486,
      "ĠMommy": 1487,
      "Ġjoin": 1488,
      "Ġpink": 1489,
      "Ġseen": 1490,
      "Ġland": 1491,
      "Okay": 1492,
      "ix": 1493,
      "pe": 1494,
      "Ġwise": 1495,
      "Ġbrother": 1496,
      "Ġbran": 1497,
      "Ġpulled": 1498,
      "Ġwoods": 1499,
      "Ġfill": 1500,
      "Ġcup": 1501,
      "Ġowl": 1502,
      "outh": 1503,
      "Ġbigger": 1504,
      "ask": 1505,
      "Ġcont": 1506,
      "Ġgrabbed": 1507,
      "ĠAfter": 1508,
      "Anna": 1509,
      "Ġpaint": 1510,
      "Ġmouth": 1511,
      "Ġenjoyed": 1512,
      "Ġchair": 1513,
      "Ġtrain": 1514,
      "uddy": 1515,
      "Ġquickly": 1516,
      "art": 1517,
      "Ġwaved": 1518,
      "Ġcolorful": 1519,
      "Ġremembered": 1520,
      "man": 1521,
      "ation": 1522,
      "Ġwaited": 1523,
      "der": 1524,
      "Ġstayed": 1525,
      "ph": 1526,
      "Ġcast": 1527,
      "Ġpot": 1528,
      "Ġplant": 1529,
      "Ġblew": 1530,
      "Ġlesson": 1531,
      "Ġve": 1532,
      "Ġjob": 1533,
      "Oh": 1534,
      "ries": 1535,
      "room": 1536,
      "Ġcre": 1537,
      "Ġtreat": 1538,
      "Ġnest": 1539,
      "cle": 1540,
      "ds": 1541,
      "This": 1542,
      "avy": 1543,
      "Ġpen": 1544,
      "Ġnoticed": 1545,
      "Ġpictures": 1546,
      "Ġgames": 1547,
      "Ġalone": 1548,
      "de": 1549,
      "Ġanything": 1550,
      "oup": 1551,
      "ower": 1552,
      "Ġgent": 1553,
      "Ġworld": 1554,
      "ĠJohn": 1555,
      "Ġspot": 1556,
      "Ġarm": 1557,
      "Ġtight": 1558,
      "Ġbott": 1559,
      "Ġset": 1560,
      "asure": 1561,
      "Ġclot": 1562,
      "Ġcomp": 1563,
      "Ġclothes": 1564,
      "Ġtower": 1565,
      "lc": 1566,
      "Ġbutterfly": 1567,
      "Ġhopped": 1568,
      "Ġbroke": 1569,
      "Ġmiss": 1570,
      "ĠDaisy": 1571,
      "Ġturns": 1572,
      "ton": 1573,
      "Ġlikes": 1574,
      "Ġmix": 1575,
      "Ġgif": 1576,
      "Ġthrew": 1577,
      "Ġsea": 1578,
      "Ġpat": 1579,
      "Ġblack": 1580,
      "Ġhimself": 1581,
      "row": 1582,
      "ucky": 1583,
      "Ġswam": 1584,
      "Ġyear": 1585,
      "Ġkey": 1586,
      "Ġheavy": 1587,
      "Lucy": 1588,
      "Ġeverywhere": 1589,
      "Ġbike": 1590,
      "Ġmakes": 1591,
      "ape": 1592,
      "Ġdelic": 1593,
      "ĠBuddy": 1594,
      "ĠWhat": 1595,
      "Ġmus": 1596,
      "Sara": 1597,
      "\".": 1598,
      "ctor": 1599,
      "orm": 1600,
      "thy": 1601,
      "Ġfollowed": 1602,
      "Ġwrong": 1603,
      "less": 1604,
      "Ġmonster": 1605,
      "Ġwon": 1606,
      "Ġwhite": 1607,
      "Ġcastle": 1608,
      "Her": 1609,
      "ued": 1610,
      "Ġpol": 1611,
      "Do": 1612,
      "Ġforgot": 1613,
      "Ġbreak": 1614,
      "Spot": 1615,
      "ĠLila": 1616,
      "ner": 1617,
      "Ġbee": 1618,
      "Ġju": 1619,
      "Bob": 1620,
      "Ġnap": 1621,
      "Ġdeep": 1622,
      "ves": 1623,
      "Ġround": 1624,
      "olly": 1625,
      "cess": 1626,
      "Ġwear": 1627,
      "Ġdry": 1628,
      "Ġvis": 1629,
      "iet": 1630,
      "Ġhit": 1631,
      "Ġdanced": 1632,
      "oun": 1633,
      "arent": 1634,
      "Ġbor": 1635,
      "Ġquiet": 1636,
      "Ġride": 1637,
      "ully": 1638,
      "Ġrel": 1639,
      "Ġunderstand": 1640,
      "Ġem": 1641,
      "ance": 1642,
      "Ġstu": 1643,
      "ister": 1644,
      "ren": 1645,
      "Ġwants": 1646,
      "Ġbrought": 1647,
      "zz": 1648,
      "Ġparent": 1649,
      "From": 1650,
      "ross": 1651,
      "Jo": 1652,
      "Ġmusic": 1653,
      "fully": 1654,
      "ts": 1655,
      "rot": 1656,
      "Ġleaf": 1657,
      "os": 1658,
      "Ġrocks": 1659,
      "Ġque": 1660,
      "Ġtalked": 1661,
      "ĠInside": 1662,
      "Ġhappen": 1663,
      "Ġcookies": 1664,
      "Ġmum": 1665,
      "Ġpoin": 1666,
      "ards": 1667,
      "Ġcontin": 1668,
      "Ġsec": 1669,
      "Ġleg": 1670,
      "Ġfaster": 1671,
      "Ġsmart": 1672,
      "ence": 1673,
      "Ġres": 1674,
      "Ġking": 1675,
      "Ġsharing": 1676,
      "Ġwell": 1677,
      "cy": 1678,
      "Ġbeach": 1679,
      "Ġworried": 1680,
      "Ġsign": 1681,
      "Ġreally": 1682,
      "Ġbowl": 1683,
      "ĠMaybe": 1684,
      "ĠTo": 1685,
      "Ġgi": 1686,
      "Ġsecret": 1687,
      "Ġdinner": 1688,
      "Ġvisit": 1689,
      "Ġfinished": 1690,
      "ang": 1691,
      "Ġsomeone": 1692,
      "Ġfox": 1693,
      "Ġside": 1694,
      "Ġsilly": 1695,
      "itten": 1696,
      "Ġbutton": 1697,
      "Ġflying": 1698,
      "Ġgu": 1699,
      "Ġear": 1700,
      "Ġblank": 1701,
      "Ġsister": 1702,
      "Ġpig": 1703,
      "Ġele": 1704,
      "Ġblanket": 1705,
      "His": 1706,
      "Ġchildren": 1707,
      "Ġel": 1708,
      "Ġsmiles": 1709,
      "ey": 1710,
      "Ġspr": 1711,
      "eddy": 1712,
      "Ġeverything": 1713,
      "ĠSoon": 1714,
      "Ġcontinued": 1715,
      "Ġfilled": 1716,
      "Ġfield": 1717,
      "ĠAt": 1718,
      "Ġbranch": 1719,
      "Ġtoday": 1720,
      "Ġperfect": 1721,
      "Ġpudd": 1722,
      "Maybe": 1723,
      "ĠSarah": 1724,
      "ĠEm": 1725,
      "ated": 1726,
      "Ġorange": 1727,
      "Ġ-": 1728,
      "Ġelse": 1729,
      "Ġjar": 1730,
      "Ġwelc": 1731,
      "gy": 1732,
      "imi": 1733,
      "Ġsang": 1734,
      "Ġdanger": 1735,
      "Ġrealized": 1736,
      "Ġcarefully": 1737,
      "Ġwish": 1738,
      "ipp": 1739,
      "itting": 1740,
      "Ġshin": 1741,
      "Ġeating": 1742,
      "Ġbite": 1743,
      "Fin": 1744,
      "Ġfree": 1745,
      "ze": 1746,
      "Ġpurp": 1747,
      "ses": 1748,
      "ead": 1749,
      "Ġcrying": 1750,
      "Ġfur": 1751,
      "Ġriver": 1752,
      "Ġmud": 1753,
      "Ġsnack": 1754,
      "Ġbrown": 1755,
      "Ġrolled": 1756,
      "Ġpromised": 1757,
      "Ġgrandma": 1758,
      "Ġmonkey": 1759,
      "Ġcow": 1760,
      "Ġpieces": 1761,
      "Ġpet": 1762,
      "ĠBilly": 1763,
      "While": 1764,
      "Ġsnake": 1765,
      "ĠTommy": 1766,
      "stead": 1767,
      "Ġpurple": 1768,
      "Ġcandy": 1769,
      "Ġyes": 1770,
      "Just": 1771,
      "cket": 1772,
      "Ġlon": 1773,
      "Ġbath": 1774,
      "Ġasks": 1775,
      "Ġlonely": 1776,
      "Ġlaughing": 1777,
      "Ġbarked": 1778,
      "ons": 1779,
      "ire": 1780,
      "Ġdrink": 1781,
      "Ġthrow": 1782,
      "Amy": 1783,
      "Ġsail": 1784,
      "Ġclosed": 1785,
      "Ġparents": 1786,
      "Ġcrab": 1787,
      "chool": 1788,
      "ises": 1789,
      "ich": 1790,
      "Ġamazing": 1791,
      "ord": 1792,
      "Ġbottle": 1793,
      "Ġdoctor": 1794,
      "Ġboun": 1795,
      "Ġapples": 1796,
      "Ġshop": 1797,
      "Ġwithout": 1798,
      "Ġpast": 1799,
      "Ġenough": 1800,
      "Ġlake": 1801,
      "Ġwords": 1802,
      "ass": 1803,
      "Ġschool": 1804,
      "Ġsitting": 1805,
      "Ġatt": 1806,
      "Ġwhe": 1807,
      "ased": 1808,
      "Ġsu": 1809,
      "Ġdrag": 1810,
      "Ġgift": 1811,
      "Ġmoved": 1812,
      "Ġruns": 1813,
      "Ġmorning": 1814,
      "Ġwagged": 1815,
      "Ġsmo": 1816,
      "althy": 1817,
      "board": 1818,
      "Ġshoes": 1819,
      "used": 1820,
      "Ġsoup": 1821,
      "Ġfairy": 1822,
      "Ġwelcome": 1823,
      "'ll": 1824,
      "Ġgetting": 1825,
      "ĠCh": 1826,
      "Ġliving": 1827,
      "ere": 1828,
      "emy": 1829,
      "ĠJen": 1830,
      "vel": 1831,
      "Ġmad": 1832,
      "fort": 1833,
      "Ġstrange": 1834,
      "ĠJoe": 1835,
      "fish": 1836,
      "ĠGra": 1837,
      "Ġcreat": 1838,
      "Ġmoney": 1839,
      "Ġtreasure": 1840,
      "Ġdangerous": 1841,
      "me": 1842,
      "iver": 1843,
      "ale": 1844,
      "ĠBl": 1845,
      "Ġcoll": 1846,
      "ĠMimi": 1847,
      "Ġletter": 1848,
      "Ġchee": 1849,
      "Ġroad": 1850,
      "Mommy": 1851,
      "unch": 1852,
      "Ġmother": 1853,
      "Ġhigher": 1854,
      "Ġstre": 1855,
      "Ġdelicious": 1856,
      "Ġpre": 1857,
      "ible": 1858,
      "arm": 1859,
      "Ġhor": 1860,
      "Ġpass": 1861,
      "Ġwhist": 1862,
      "cks": 1863,
      "ella": 1864,
      "Ġpaw": 1865,
      "Ġpill": 1866,
      "Ġsame": 1867,
      "Ġtalking": 1868,
      "Ġpuddle": 1869,
      "Ġstand": 1870,
      "set": 1871,
      "Ġcaught": 1872,
      "gg": 1873,
      "Ġra": 1874,
      "Ġshining": 1875,
      "itch": 1876,
      "una": 1877,
      "Ġbask": 1878,
      "Ġbasket": 1879,
      "Ġwings": 1880,
      "Ġstone": 1881,
      "Ġnose": 1882,
      "Ġbring": 1883,
      "ĠZ": 1884,
      "Ġbelie": 1885,
      "Ġswings": 1886,
      "ush": 1887,
      "Ġmail": 1888,
      "Ġthinks": 1889,
      "Ġstart": 1890,
      "igh": 1891,
      "app": 1892,
      "Ġscream": 1893,
      "Ġfinally": 1894,
      "Ġcoat": 1895,
      "Ġfarmer": 1896,
      "Ġfan": 1897,
      "sw": 1898,
      "sy": 1899,
      "erry": 1900,
      "Ġdropped": 1901,
      "John": 1902,
      "ined": 1903,
      "igg": 1904,
      "Ġansw": 1905,
      "Ġph": 1906,
      "Ġegg": 1907,
      "Ġpush": 1908,
      "Ġtom": 1909,
      "Ġbat": 1910,
      "Ġowner": 1911,
      "Please": 1912,
      "Ġherself": 1913,
      "Ġteddy": 1914,
      "isk": 1915,
      "Ġsear": 1916,
      "Ġmine": 1917,
      "Ġdays": 1918,
      "Ġcray": 1919,
      "Ġhoped": 1920,
      "Ġyears": 1921,
      "Ġbelong": 1922,
      "Ġspin": 1923,
      "Ġwoke": 1924,
      "eb": 1925,
      "Ġbuck": 1926,
      "ier": 1927,
      "Ġtrou": 1928,
      "Ġcarrot": 1929,
      "Ġbow": 1930,
      "Ġseed": 1931,
      "Ġarri": 1932,
      "Ġtasty": 1933,
      "Ġteach": 1934,
      "bow": 1935,
      "Ġtwins": 1936,
      "OK": 1937,
      "Ġgentle": 1938,
      "Ġpers": 1939,
      "llie": 1940,
      "ches": 1941,
      "Ġseem": 1942,
      "Ġcute": 1943,
      "Ġwore": 1944,
      "Ġbush": 1945,
      "phant": 1946,
      "Ġdragon": 1947,
      "Ġcorn": 1948,
      "Ġcho": 1949,
      "ĠRemy": 1950,
      "Ġmin": 1951,
      "Ġteac": 1952,
      "Ġcour": 1953,
      "Ġbread": 1954,
      "Ġsinging": 1955,
      "Ġcheered": 1956,
      "ipped": 1957,
      "Ġrope": 1958,
      "ball": 1959,
      "Ġwonderful": 1960,
      "iskers": 1961,
      "Ġfence": 1962,
      "Ġvill": 1963,
      "Ġfit": 1964,
      "Ġelephant": 1965,
      "Ġshap": 1966,
      "Ġforever": 1967,
      "Ġpuppy": 1968,
      "Ġkite": 1969,
      "Ġshell": 1970,
      "Ġable": 1971,
      "ol": 1972,
      "Ġrainbow": 1973,
      "Ġben": 1974,
      "Ġcourse": 1975,
      "Ġcheese": 1976,
      "Ġmost": 1977,
      "Ġhiding": 1978,
      "Ġje": 1979,
      "Ġgrew": 1980,
      "Ġjoy": 1981,
      "ĠThank": 1982,
      "Ġtouc": 1983,
      "br": 1984,
      "aughty": 1985,
      "idge": 1986,
      "Ġsack": 1987,
      "ract": 1988,
      "Finally": 1989,
      "Ġnaughty": 1990,
      "Ġshake": 1991,
      "Ġshook": 1992,
      "arp": 1993,
      "Good": 1994,
      "Ġstreet": 1995,
      "ĠBlue": 1996,
      "Ġnut": 1997,
      "Ġsharp": 1998,
      "Ġdolls": 1999,
      "sc": 2000,
      "Ġpile": 2001,
      "irth": 2002,
      "Ġsounds": 2003,
      "Ġshapes": 2004,
      "irthday": 2005,
      "Ġarrived": 2006,
      "Ġpromise": 2007,
      "Ġshr": 2008,
      "ĠJim": 2009,
      "Ġheart": 2010,
      "Ġdes": 2011,
      "isa": 2012,
      "ĠEmma": 2013,
      "fused": 2014,
      "Ġspoon": 2015,
      "Ġteacher": 2016,
      "ian": 2017,
      "Jack": 2018,
      "Ġlunch": 2019,
      "Ġinc": 2020,
      "ĠBella": 2021,
      "ama": 2022,
      "Ġtouched": 2023,
      "Ġneck": 2024,
      "Ġcave": 2025,
      "Ġholding": 2026,
      "Ġbusy": 2027,
      "Ġjuice": 2028,
      "irp": 2029,
      "Ġprob": 2030,
      "Ġmeet": 2031,
      "Ġcarry": 2032,
      "Ġvillage": 2033,
      "urtle": 2034,
      "Ġeas": 2035,
      "Ġbugs": 2036,
      "Ġnum": 2037,
      "ator": 2038,
      "Ġballs": 2039,
      "ĠWhiskers": 2040,
      "eared": 2041,
      "lem": 2042,
      "Ġbirthday": 2043,
      "col": 2044,
      "Ġpatient": 2045,
      "Ġfew": 2046,
      "Ġpocket": 2047,
      "Ġfeels": 2048,
      "Ġproblem": 2049,
      "adow": 2050,
      "Ġdirt": 2051,
      "Ġshy": 2052,
      "Ġspark": 2053,
      "Ġbench": 2054,
      "Ġtowards": 2055,
      "Ġhorse": 2056,
      "Ġwar": 2057,
      "Ġpower": 2058,
      "Ġkiss": 2059,
      "Ġpop": 2060,
      "Ġspo": 2061,
      "Ġbell": 2062,
      "ost": 2063,
      "ourn": 2064,
      "Ġband": 2065,
      "Ġbelieve": 2066,
      "Ġplane": 2067,
      "Ġtrip": 2068,
      "Ġjourn": 2069,
      "ountain": 2070,
      "Ġob": 2071,
      "Ġwra": 2072,
      "ling": 2073,
      "Ġmagical": 2074,
      "Ġnoises": 2075,
      "irt": 2076,
      "Ġupset": 2077,
      "Ġlate": 2078,
      "ato": 2079,
      "Ġstorm": 2080,
      "gly": 2081,
      "Ġslowly": 2082,
      "eter": 2083,
      "Ġrec": 2084,
      "Ġturtle": 2085,
      "Ġorgan": 2086,
      "epend": 2087,
      "Ġgiant": 2088,
      "Ġwild": 2089,
      "Ġhoney": 2090,
      "Ġmist": 2091,
      "Ġstories": 2092,
      "Ġcir": 2093,
      "Ġhugs": 2094,
      "Ġamazed": 2095,
      "Ġlive": 2096,
      "Ġsnowman": 2097,
      "unt": 2098,
      "alm": 2099,
      "lla": 2100,
      "Ġcoin": 2101,
      "Ġugly": 2102,
      "ub": 2103,
      "ĠFred": 2104,
      "oose": 2105,
      "Ġcover": 2106,
      "Ġmark": 2107,
      "ilk": 2108,
      "iling": 2109,
      "Ġsandw": 2110,
      "Ġhelpful": 2111,
      "Ġseat": 2112,
      "Ġsug": 2113,
      "Ġdist": 2114,
      "Ġcloth": 2115,
      "Ġtaking": 2116,
      "Ġpillow": 2117,
      "Ġstars": 2118,
      "aur": 2119,
      "Ġrude": 2120,
      "Ġtreats": 2121,
      "Ġstring": 2122,
      "Ġwhistle": 2123,
      "Ġzoom": 2124,
      "Ġmilk": 2125,
      "Ġgray": 2126,
      "Ġdriver": 2127,
      "Ġfold": 2128,
      "Ġlucky": 2129,
      "Ġglow": 2130,
      "Ġducks": 2131,
      "read": 2132,
      "Ġpuzz": 2133,
      "Ġsplas": 2134,
      "umpy": 2135,
      "Ġdi": 2136,
      "Ġdrove": 2137,
      "Ġyoung": 2138,
      "Ġdisapp": 2139,
      "Ġwide": 2140,
      "Ġprincess": 2141,
      "ove": 2142,
      "pping": 2143,
      "Ġspid": 2144,
      "Ġsuc": 2145,
      "Ġrob": 2146,
      "fortable": 2147,
      "ize": 2148,
      "ĠLe": 2149,
      "Sure": 2150,
      "Ġinv": 2151,
      "oggy": 2152,
      "Ġcard": 2153,
      "ĠBu": 2154,
      "Ġfoot": 2155,
      "Ġmoon": 2156,
      "Ġseek": 2157,
      "Ġwheel": 2158,
      "Ġshelf": 2159,
      "ĠCome": 2160,
      "Ġwasn": 2161,
      "Ġhuge": 2162,
      "Be": 2163,
      "ular": 2164,
      "Hey": 2165,
      "Ġmach": 2166,
      "ung": 2167,
      "Ġboss": 2168,
      "Ġinstead": 2169,
      "Of": 2170,
      "not": 2171,
      "Ġlem": 2172,
      "elly": 2173,
      "up": 2174,
      "Ġgrab": 2175,
      "Ġpart": 2176,
      "Ġcraw": 2177,
      "Ġbucket": 2178,
      "ĠLisa": 2179,
      "Ġser": 2180,
      "Ġcannot": 2181,
      "Ġfighting": 2182,
      "ĠFinally": 2183,
      "Ġforget": 2184,
      "Ġoven": 2185,
      "Ġspicy": 2186,
      "Ġadventures": 2187,
      "Ġrobot": 2188,
      "Later": 2189,
      "Ġcookie": 2190,
      "Ġsick": 2191,
      "ĠJust": 2192,
      "ĠAnn": 2193,
      "Ġcomes": 2194,
      "Ġpan": 2195,
      "Ġkitten": 2196,
      "Ġphone": 2197,
      "ens": 2198,
      "Ġthin": 2199,
      "den": 2200,
      "Ġce": 2201,
      "est": 2202,
      "Ġbark": 2203,
      "pper": 2204,
      "erest": 2205,
      "ose": 2206,
      "Ġsel": 2207,
      "Ġfixed": 2208,
      "Ġsuddenly": 2209,
      "Ġchased": 2210,
      "Ġdrive": 2211,
      "ĠMark": 2212,
      "Ġhidden": 2213,
      "ĠMolly": 2214,
      "Ġbone": 2215,
      "Ġinterest": 2216,
      "Ġwrite": 2217,
      "bbles": 2218,
      "Ġtaste": 2219,
      "ĠN": 2220,
      "Ġpeace": 2221,
      "Ġnet": 2222,
      "bled": 2223,
      "Ġca": 2224,
      "izz": 2225,
      "Ġlast": 2226,
      "Ġsongs": 2227,
      "rill": 2228,
      "Ġdaddy": 2229,
      "Ġsmooth": 2230,
      "Ġstepped": 2231,
      "Ġtie": 2232,
      "ĠCat": 2233,
      "Ġwave": 2234,
      "ert": 2235,
      "Ġsheep": 2236,
      "let": 2237,
      "ors": 2238,
      "Ġbeak": 2239,
      "Ġselfish": 2240,
      "ĠJill": 2241,
      "Ġchick": 2242,
      "Ġwolf": 2243,
      "Ġpath": 2244,
      "Ġlife": 2245,
      "ife": 2246,
      "izzy": 2247,
      "Ġjoke": 2248,
      "ery": 2249,
      "iger": 2250,
      "Ġimag": 2251,
      "Ġslid": 2252,
      "Ġcart": 2253,
      "Ġspider": 2254,
      "Ġmot": 2255,
      "Ġmyster": 2256,
      "Ġval": 2257,
      "Ġsleepy": 2258,
      "ever": 2259,
      "Ġchange": 2260,
      "lower": 2261,
      "Ġclever": 2262,
      "Ġgrate": 2263,
      "dge": 2264,
      "ĠGrandma": 2265,
      "Ġmissed": 2266,
      "irpy": 2267,
      "Ġlater": 2268,
      "Ġrad": 2269,
      "oph": 2270,
      "Ġspray": 2271,
      "Ġring": 2272,
      "Ġrocket": 2273,
      "eth": 2274,
      "Ġconfused": 2275,
      "Ġlanded": 2276,
      "Ġgrateful": 2277,
      "St": 2278,
      "Ġgrumpy": 2279,
      "Ġfle": 2280,
      "Ġav": 2281,
      "ewel": 2282,
      "Ġbought": 2283,
      "Ġlad": 2284,
      "yard": 2285,
      "Ġjewel": 2286,
      "Ġclouds": 2287,
      "Ġjelly": 2288,
      "to": 2289,
      "Ġstep": 2290,
      "Ġacross": 2291,
      "Ġdrew": 2292,
      "Ġcalm": 2293,
      "ĠJerry": 2294,
      "Ġtid": 2295,
      "ĠBunny": 2296,
      "Ġwash": 2297,
      "Ġwatching": 2298,
      "Ġbackyard": 2299,
      "Ġinteresting": 2300,
      "To": 2301,
      "stion": 2302,
      "Ġmachine": 2303,
      "ĠLeo": 2304,
      "Ġsour": 2305,
      "Ġsal": 2306,
      "ugg": 2307,
      "Ġfinish": 2308,
      "ained": 2309,
      "Ġmessy": 2310,
      "Ġlegs": 2311,
      "Ġsticks": 2312,
      "Ġash": 2313,
      "ming": 2314,
      "Ġseemed": 2315,
      "Ġspe": 2316,
      "Ġban": 2317,
      "Ġhealthy": 2318,
      "ĠLuna": 2319,
      "Ġladder": 2320,
      "Soon": 2321,
      "amed": 2322,
      "Ġfing": 2323,
      "llo": 2324,
      "ward": 2325,
      "Ġemp": 2326,
      "Ġexp": 2327,
      "Ġempty": 2328,
      "kin": 2329,
      "Ġyog": 2330,
      "Ġchew": 2331,
      "Ġwondered": 2332,
      "Ġpour": 2333,
      "Ġthough": 2334,
      "Ġlift": 2335,
      "Ġwhole": 2336,
      "Ġsmelly": 2337,
      "Ġent": 2338,
      "Ġcou": 2339,
      "ity": 2340,
      "Ġdogs": 2341,
      "Ġalong": 2342,
      "Ġpin": 2343,
      "Ġnothing": 2344,
      "Ġzoo": 2345,
      "erly": 2346,
      "Ġfruits": 2347,
      "ĠBe": 2348,
      "pect": 2349,
      "Ġtidy": 2350,
      "Ġtea": 2351,
      "Ġign": 2352,
      "Ġqueen": 2353,
      "Ġsave": 2354,
      "ĠDaddy": 2355,
      "Ġquestion": 2356,
      "Ġpuzzle": 2357,
      "Ġlay": 2358,
      "Ġhope": 2359,
      "Ġlonger": 2360,
      "oc": 2361,
      "Ġworm": 2362,
      "ĠBobby": 2363,
      "Ġjog": 2364,
      "Ġgently": 2365,
      "ĠChirpy": 2366,
      "Ġcross": 2367,
      "unk": 2368,
      "Ġtakes": 2369,
      "Come": 2370,
      "Ġpack": 2371,
      "mer": 2372,
      "Ġworking": 2373,
      "Ġbanan": 2374,
      "Ġba": 2375,
      "Ġbossy": 2376,
      "Ġscar": 2377,
      "ĠMomo": 2378,
      "Ġsplash": 2379,
      "oomy": 2380,
      "Ġprot": 2381,
      "Ġplate": 2382,
      "Ġkick": 2383,
      "Ġexplor": 2384,
      "ars": 2385,
      "Ġmed": 2386,
      "ones": 2387,
      "ult": 2388,
      "Ġarms": 2389,
      "izza": 2390,
      "ĠWith": 2391,
      "Ġsupp": 2392,
      "Ġact": 2393,
      "Ġfil": 2394,
      "Ġfeather": 2395,
      "Ġplaces": 2396,
      "orrow": 2397,
      "Ġmind": 2398,
      "Ġlovely": 2399,
      "ĠOllie": 2400,
      "ope": 2401,
      "ocked": 2402,
      "Ġanyone": 2403,
      "Ġsmelled": 2404,
      "Ġpizza": 2405,
      "ork": 2406,
      "Ġeasy": 2407,
      "bar": 2408,
      "Ġtrouble": 2409,
      "box": 2410,
      "oop": 2411,
      "Ġswimming": 2412,
      "oof": 2413,
      "Ġfaces": 2414,
      "Ġpract": 2415,
      "Ġmaybe": 2416,
      "ont": 2417,
      "Ġforgive": 2418,
      "Ġmistake": 2419,
      "Ġneigh": 2420,
      "arge": 2421,
      "Ġwaiting": 2422,
      "Ġperson": 2423,
      "Ġline": 2424,
      "Ġonto": 2425,
      "ĠDoggy": 2426,
      "ipe": 2427,
      "rass": 2428,
      "Ġgives": 2429,
      "barrass": 2430,
      "era": 2431,
      "Ġembarrass": 2432,
      "Ġfake": 2433,
      "Ġcrayons": 2434,
      "ina": 2435,
      "Ġlemon": 2436,
      "Ġneighb": 2437,
      "Ġtomorrow": 2438,
      "Ġdish": 2439,
      "ado": 2440,
      "Ġboring": 2441,
      "Ġsaved": 2442,
      "Ġjumping": 2443,
      "Ġwing": 2444,
      "iting": 2445,
      "Ġsuch": 2446,
      "Ġbal": 2447,
      "Ġmap": 2448,
      "ĠTheir": 2449,
      "Ġfront": 2450,
      "Kitty": 2451,
      "Ġsol": 2452,
      "ned": 2453,
      "Ġmotor": 2454,
      "ually": 2455,
      "Ġappeared": 2456,
      "Ġlarge": 2457,
      "My": 2458,
      "Ġweak": 2459,
      "Ġship": 2460,
      "Ġgather": 2461,
      "irr": 2462,
      "Ġcheer": 2463,
      "ment": 2464,
      "aw": 2465,
      "Ġtrue": 2466,
      "Ġlaw": 2467,
      "ĠMy": 2468,
      "onest": 2469,
      "And": 2470,
      "Ġshirt": 2471,
      "ĠWhy": 2472,
      "Ġplants": 2473,
      "Ġpointed": 2474,
      "Ġsandwich": 2475,
      "Ġgoes": 2476,
      "Ġpool": 2477,
      "Ġnearby": 2478,
      "Ġsur": 2479,
      "Ġbuilding": 2480,
      "Ġanswer": 2481,
      "ek": 2482,
      "Ġteeth": 2483,
      "aced": 2484,
      "Ġnumber": 2485,
      "Ġhum": 2486,
      "Ġfancy": 2487,
      "Ġaf": 2488,
      "Ġhonest": 2489,
      "Ġants": 2490,
      "icked": 2491,
      "Ġloves": 2492,
      "ĠMary": 2493,
      "sp": 2494,
      "Ġscarf": 2495,
      "Ġeag": 2496,
      "osaur": 2497,
      "Ġdeer": 2498,
      "Ġprince": 2499,
      "oman": 2500,
      "Ġmatch": 2501,
      "Ġdrum": 2502,
      "Ġscreamed": 2503,
      "Ġsplashed": 2504,
      "ĠTV": 2505,
      "Ġwoman": 2506,
      "aughter": 2507,
      "ĠSomet": 2508,
      "Ġpretended": 2509,
      "Ġcozy": 2510,
      "Sally": 2511,
      "Ġstood": 2512,
      "Ġsold": 2513,
      "Ġlazy": 2514,
      "Ġjourney": 2515,
      "raid": 2516,
      "Ġputs": 2517,
      "Ġlamp": 2518,
      "bble": 2519,
      "ĠPlease": 2520,
      "Ġnote": 2521,
      "elp": 2522,
      "Ġcreative": 2523,
      "ĠIf": 2524,
      "Ġafraid": 2525,
      "Ġdinosaur": 2526,
      "Ġret": 2527,
      "Ġcleaned": 2528,
      "vous": 2529,
      "gest": 2530,
      "Ġrich": 2531,
      "Ġshark": 2532,
      "Ġhello": 2533,
      "Ġwearing": 2534,
      "Ġfear": 2535,
      "Ġimpress": 2536,
      "Ġreturn": 2537,
      "iff": 2538,
      "Ġsearch": 2539,
      "Ġsmiling": 2540,
      "uce": 2541,
      "Ġchase": 2542,
      "Ġcloset": 2543,
      "Ġsuccess": 2544,
      "ĠTogether": 2545,
      "Ġbounce": 2546,
      "Ġashamed": 2547,
      "Ġwis": 2548,
      "Ġtrust": 2549,
      "Ġsoap": 2550,
      "ĠGo": 2551,
      "Ġner": 2552,
      "Ġchocol": 2553,
      "Ġpri": 2554,
      "urse": 2555,
      "Stop": 2556,
      "Ġhang": 2557,
      "Ġnoisy": 2558,
      "Ġnervous": 2559,
      "Ġpowerful": 2560,
      "Ġdaughter": 2561,
      "Ġshadow": 2562,
      "pa": 2563,
      "ĠDon": 2564,
      "Ġdancing": 2565,
      "Ġgold": 2566,
      "Ġclown": 2567,
      "Ġtent": 2568,
      "Ġdig": 2569,
      "Ġfurry": 2570,
      "imp": 2571,
      "Ġicy": 2572,
      "Ġgate": 2573,
      "ĠHow": 2574,
      "Ġhero": 2575,
      "Ġsque": 2576,
      "Ġcage": 2577,
      "Ġvan": 2578,
      "Ġrub": 2579,
      "Ġstret": 2580,
      "Ġglass": 2581,
      "Ġdisco": 2582,
      "Ġcand": 2583,
      "Help": 2584,
      "Ġmatter": 2585,
      "ute": 2586,
      "Ġtries": 2587,
      "Ġsnee": 2588,
      "oppy": 2589,
      "Ġpolite": 2590,
      "Ġrelie": 2591,
      "Ġsaf": 2592,
      "Ġvase": 2593,
      "Ġcarried": 2594,
      "Ġfeet": 2595,
      "Ġchocolate": 2596,
      "Ġtape": 2597,
      "Ġreg": 2598,
      "Ġclap": 2599,
      "Ġsugar": 2600,
      "Ġclay": 2601,
      "ĠSt": 2602,
      "scape": 2603,
      "Ġcircle": 2604,
      "Ġkicked": 2605,
      "Ġwand": 2606,
      "Ġlock": 2607,
      "lebr": 2608,
      "Ġstra": 2609,
      "Ġbake": 2610,
      "Ġknee": 2611,
      "Ġpainted": 2612,
      "Ġbean": 2613,
      "Ġboot": 2614,
      "rag": 2615,
      "ĠBenny": 2616,
      "Ġcelebr": 2617,
      "Ġbridge": 2618,
      "Ġpoor": 2619,
      "Ġpeaceful": 2620,
      "live": 2621,
      "nic": 2622,
      "Ġpicnic": 2623,
      "Ġtele": 2624,
      "Ġprotect": 2625,
      "Ġembarrassed": 2626,
      "ym": 2627,
      "ndpa": 2628,
      "itter": 2629,
      "Ġrare": 2630,
      "Ġdrank": 2631,
      "Lila": 2632,
      "isp": 2633,
      "Ġthick": 2634,
      "Ġprint": 2635,
      "Ġcouch": 2636,
      "ual": 2637,
      "ĠBr": 2638,
      "Ġmirr": 2639,
      "Ġtool": 2640,
      "Ġknocked": 2641,
      "Ġfeed": 2642,
      "Ġmarch": 2643,
      "Dad": 2644,
      "Ġthese": 2645,
      "Ġhur": 2646,
      "Ġdecor": 2647,
      "Ġballoons": 2648,
      "Ġmysterious": 2649,
      "arl": 2650,
      "Ġboard": 2651,
      "Ġcorner": 2652,
      "Ġfat": 2653,
      "Ġstir": 2654,
      "Ġcrown": 2655,
      "Ġmirror": 2656,
      "Ġap": 2657,
      "Ġtowel": 2658,
      "Ġtest": 2659,
      "ĠTiny": 2660,
      "Ġbald": 2661,
      "ness": 2662,
      "Ġgen": 2663,
      "Ġclock": 2664,
      "Ġdizzy": 2665,
      "Ġeld": 2666,
      "Ġwhisp": 2667,
      "Ġbarn": 2668,
      "Ġclass": 2669,
      "ĠBird": 2670,
      "Ġgigg": 2671,
      "ĠSometimes": 2672,
      "ĠBear": 2673,
      "Ġbecome": 2674,
      "ensive": 2675,
      "Ġpump": 2676,
      "Ġmoms": 2677,
      "Ġlead": 2678,
      "Ġrespect": 2679,
      "lves": 2680,
      "Ġexpensive": 2681,
      "mb": 2682,
      "Ġgun": 2683,
      "Ġspace": 2684,
      "erries": 2685,
      "ĠJimmy": 2686,
      "Ġberries": 2687,
      "Ġtasted": 2688,
      "Ġsock": 2689,
      "Ġelderly": 2690,
      "Ġcri": 2691,
      "ĠSp": 2692,
      "ĠAl": 2693,
      "Ġhose": 2694,
      "Ġscare": 2695,
      "Ġjet": 2696,
      "Ġpres": 2697,
      "Ġchicken": 2698,
      "Ġrelieved": 2699,
      "ced": 2700,
      "owed": 2701,
      "Ġwouldn": 2702,
      "Ġyelled": 2703,
      "Ġspread": 2704,
      "Ġmighty": 2705,
      "ote": 2706,
      "Ġgroup": 2707,
      "ventually": 2708,
      "Ġtick": 2709,
      "Ġtiger": 2710,
      "ustr": 2711,
      "Ġorganized": 2712,
      "ĠTr": 2713,
      "Ġ'": 2714,
      "Ġclear": 2715,
      "Ġbalance": 2716,
      "Ġpay": 2717,
      "Ġsquare": 2718,
      "Ġcap": 2719,
      "Ġgas": 2720,
      "Ġlog": 2721,
      "Ġhar": 2722,
      "Ġfool": 2723,
      "Ġmountain": 2724,
      "Ġrose": 2725,
      "ser": 2726,
      "ĠMama": 2727,
      "Ġwhale": 2728,
      "kn": 2729,
      "Ġlose": 2730,
      "Ġbrush": 2731,
      "Ġbranches": 2732,
      "Ġsco": 2733,
      "Ġswan": 2734,
      "Ġmel": 2735,
      "Ġmis": 2736,
      "Ġincred": 2737,
      "Ġglue": 2738,
      "Ġexploring": 2739,
      "Ġmixed": 2740,
      "Ġter": 2741,
      "Ġfrag": 2742,
      "Ġdrawing": 2743,
      "Ġfrustr": 2744,
      "Ġblow": 2745,
      "Ġfright": 2746,
      "Ġfamous": 2747,
      "Ġcollect": 2748,
      "Ġguess": 2749,
      "Ġwake": 2750,
      "Ġpolice": 2751,
      "known": 2752,
      "ĠSome": 2753,
      "dle": 2754,
      "ighed": 2755,
      "Ġadm": 2756,
      "Ġdead": 2757,
      "Ġdull": 2758,
      "alous": 2759,
      "Ġmeasure": 2760,
      "Ġhears": 2761,
      "Ġterri": 2762,
      "Ġfragile": 2763,
      "Ġword": 2764,
      "Ġtwist": 2765,
      "Ġjealous": 2766,
      "lace": 2767,
      "obe": 2768,
      "Ġincredible": 2769,
      "Ġ3": 2770,
      "Ġfine": 2771,
      "Ġstamp": 2772,
      "fic": 2773,
      "Ġgener": 2774,
      "Ġfoolish": 2775,
      "Ġunknown": 2776,
      "Ġdiffic": 2777,
      "Ġdiscover": 2778,
      "any": 2779,
      "Ġnecklace": 2780,
      "Ġpray": 2781,
      "Ġtaught": 2782,
      "Ġstubb": 2783,
      "Ġunderstood": 2784,
      "Ġfrustrated": 2785,
      "Ġwhich": 2786,
      "issors": 2787,
      "Ġadd": 2788,
      "Ġdifficult": 2789,
      "Ġburn": 2790,
      "Ġrough": 2791,
      "Ġeggs": 2792,
      "Ġignor": 2793,
      "Ġwaff": 2794,
      "Ġnosy": 2795,
      "Ġstubborn": 2796,
      "Ġnorm": 2797,
      "Ġwrap": 2798,
      "Ġfrightened": 2799,
      "Ġsell": 2800,
      "port": 2801,
      "Ġfier": 2802,
      "Where": 2803,
      "Ġnormal": 2804,
      "Ġwashed": 2805,
      "anged": 2806,
      "inky": 2807,
      "Ġfierce": 2808,
      "Ġsword": 2809,
      "Ġgloomy": 2810,
      "Ġjeep": 2811,
      "ond": 2812,
      "robe": 2813,
      "und": 2814,
      "Ġcomfortable": 2815,
      "Ġdelicate": 2816,
      "Ġscissors": 2817,
      "Ġunus": 2818,
      "ique": 2819,
      "Ġtoast": 2820,
      "Ġunusual": 2821,
      "ony": 2822,
      "bby": 2823,
      "Ġmic": 2824,
      "Ġclum": 2825,
      "Ġteam": 2826,
      "airs": 2827,
      "Ġunique": 2828,
      "alk": 2829,
      "Ġwagon": 2830,
      "Ġfinger": 2831,
      "Ġfinding": 2832,
      "Ġflag": 2833,
      "Ġgenerous": 2834,
      "Ġbreath": 2835,
      "Ġhorn": 2836,
      "Ġdug": 2837,
      "Ġstat": 2838,
      "Ġclumsy": 2839,
      "ray": 2840,
      "Ġwaves": 2841,
      "orry": 2842,
      "Ġexam": 2843,
      "cient": 2844,
      "Ġweird": 2845,
      "Ġnuts": 2846,
      "gu": 2847,
      "Ġknife": 2848,
      "Ġbathroom": 2849,
      "Ġwitch": 2850,
      "Ġcreature": 2851,
      "ory": 2852,
      "Together": 2853,
      "Ġdrop": 2854,
      "Ġjoined": 2855,
      "Ġsearched": 2856,
      "Ġstuff": 2857,
      "Ġancient": 2858,
      "Ġord": 2859,
      "Ġpresent": 2860,
      "Ġwealthy": 2861,
      "Ġcone": 2862,
      "Ġstri": 2863,
      "Ġlab": 2864,
      "Ġunl": 2865,
      "Ġterrible": 2866,
      "Ġhairy": 2867,
      "Ġchanged": 2868,
      "Ġseeds": 2869,
      "ĠBrown": 2870,
      "ĠTw": 2871,
      "Ġcher": 2872,
      "Ġspent": 2873,
      "Ġnods": 2874,
      "Ġwrote": 2875,
      "Ġstones": 2876,
      "Ġbubbles": 2877,
      "Ġcab": 2878,
      "Ġspoiled": 2879,
      "Ġind": 2880,
      "Ġyarn": 2881,
      "getable": 2882,
      "Ġrelax": 2883,
      "light": 2884,
      "Ġvegetable": 2885,
      "Ġcovered": 2886,
      "Ġaunt": 2887,
      "Ġtrick": 2888,
      "Ġthankful": 2889,
      "yal": 2890,
      "Ġdepend": 2891,
      "Who": 2892,
      "Ġstatue": 2893,
      "Ġpotato": 2894,
      "Ġcries": 2895,
      "Ġexplained": 2896,
      "Ġer": 2897,
      "Ġpepper": 2898,
      "Every": 2899,
      "Ġrat": 2900,
      "Ġbloom": 2901,
      "Ġcabin": 2902,
      "apped": 2903,
      "Ġpige": 2904,
      "Ġsunf": 2905,
      "Ġmov": 2906,
      "ying": 2907,
      "Ġcrazy": 2908,
      "Ġhats": 2909,
      "Ġbanana": 2910,
      "Ġpumpkin": 2911,
      "selves": 2912,
      "Ġending": 2913,
      "Here": 2914,
      "Ġmuff": 2915,
      "shine": 2916,
      "Ġsquee": 2917,
      "ĠAndy": 2918,
      "iant": 2919,
      "Ġbitter": 2920,
      "Ġdove": 2921,
      "Ġasleep": 2922,
      "Ġloyal": 2923,
      "Ġgoat": 2924,
      "Ġtoug": 2925,
      "anut": 2926,
      "Ġshore": 2927,
      "reen": 2928,
      "Ġchest": 2929,
      "Ġvalue": 2930,
      "ground": 2931,
      "xible": 2932,
      "Ġasking": 2933,
      "Ġsunshine": 2934,
      "irsty": 2935,
      "Ġjolly": 2936,
      "Ġdough": 2937,
      "Ġmeal": 2938,
      "Ġdependable": 2939,
      "Ġmoving": 2940,
      "Ġyours": 2941,
      "Ġexciting": 2942,
      "Ġhay": 2943,
      "Ġcro": 2944,
      "Ġgoose": 2945,
      "iddle": 2946,
      "aken": 2947,
      "Ġtough": 2948,
      "Ġfrown": 2949,
      "Ġobed": 2950,
      "Ġmask": 2951,
      "ates": 2952,
      "ĠWill": 2953,
      "Ġflash": 2954,
      "ĠNo": 2955,
      "Ġshine": 2956,
      "Ġstove": 2957,
      "Ġthirsty": 2958,
      "Ġmagn": 2959,
      "Ġadventur": 2960,
      "ĠYour": 2961,
      "Ġadventurous": 2962,
      "Ġyourself": 2963,
      "Ġsnacks": 2964,
      "Ġflexible": 2965,
      "Ġavoc": 2966,
      "Ġobedient": 2967,
      "Ġfig": 2968,
      "berry": 2969,
      "Ġuseful": 2970,
      "Ġeager": 2971,
      "pid": 2972,
      "Ġmiddle": 2973,
      "Ġroar": 2974,
      "Ġsmaller": 2975,
      "Ġtells": 2976,
      "iness": 2977,
      "Ġgum": 2978,
      "Ġknowing": 2979,
      "ĠTrue": 2980,
      "ti": 2981,
      "Ġcats": 2982,
      "Ġbored": 2983,
      "Ġpaws": 2984,
      "Ġham": 2985,
      "Ġmarket": 2986,
      "fted": 2987,
      "Ġref": 2988,
      "ĠPe": 2989,
      "Ġstupid": 2990,
      "Ġtaken": 2991,
      "Ġescape": 2992,
      "ume": 2993,
      "Ġstraw": 2994,
      "umpet": 2995,
      "com": 2996,
      "Ġlow": 2997,
      "Ġtrumpet": 2998,
      "het": 2999,
      "ĠElla": 3000,
      "rilliant": 3001,
      "Me": 3002,
      "Ġbrilliant": 3003,
      "Ġsolve": 3004,
      "Ġenorm": 3005,
      "Ġbottom": 3006,
      "Ġneighbor": 3007,
      "Ġenormous": 3008,
      "most": 3009,
      "ants": 3010,
      "Ġtomato": 3011,
      "ĠInstead": 3012,
      "ĠU": 3013,
      "ĠDucky": 3014,
      "aghet": 3015,
      "Ġfearful": 3016,
      "aghetti": 3017,
      "Ġalmost": 3018,
      "Ġcounted": 3019,
      "Ġtimes": 3020,
      "Ġjam": 3021,
      "ĠWhile": 3022,
      "gust": 3023,
      "axi": 3024,
      "iable": 3025,
      "icine": 3026,
      "Ġspaghetti": 3027,
      "Ġscr": 3028,
      "ĠRex": 3029,
      "Ġdisgust": 3030,
      "Ġmedicine": 3031,
      "erp": 3032,
      "Ġborrow": 3033,
      "ependent": 3034,
      "Ġstage": 3035,
      "Ġbody": 3036,
      "Ġfridge": 3037,
      "ident": 3038,
      "Ġgets": 3039,
      "Ġpeanut": 3040,
      "Ġboats": 3041,
      "land": 3042,
      "ĠJenny": 3043,
      "Ġdesign": 3044,
      "Sorry": 3045,
      "Ġcareless": 3046,
      "iv": 3047,
      "icop": 3048,
      "Ġsunflower": 3049,
      "icopter": 3050,
      "Ġcam": 3051,
      "unn": 3052,
      "Ġhelicopter": 3053,
      "Ġacorn": 3054,
      "Ġfour": 3055,
      "Ġperform": 3056,
      "Inside": 3057,
      "Ġbelonged": 3058,
      "Ġsighed": 3059,
      "Ġimpressive": 3060,
      "Ġsuccessful": 3061,
      "Ġslipped": 3062,
      "Ġbedroom": 3063,
      "Ġspotted": 3064,
      "Ġtaxi": 3065,
      "Ġrug": 3066,
      "Are": 3067,
      "met": 3068,
      "Ġoce": 3069,
      "ict": 3070,
      "Ġshoot": 3071,
      "Ġocean": 3072,
      "lph": 3073,
      "Ġtied": 3074,
      "aser": 3075,
      "Ġindependent": 3076,
      "bers": 3077,
      "Ġmill": 3078,
      "Ġdisgusting": 3079,
      "Ġraced": 3080,
      "Ġhelmet": 3081,
      "Ġharm": 3082,
      "Ġwander": 3083,
      "Ġquar": 3084,
      "Ġpipe": 3085,
      "Ġmoder": 3086,
      "Ġpainting": 3087,
      "aff": 3088,
      "corn": 3089,
      "Ġtire": 3090,
      "Ġpants": 3091,
      "stal": 3092,
      "ĠMany": 3093,
      "Ġshoe": 3094,
      "cycle": 3095,
      "erable": 3096,
      "Ġgar": 3097,
      "Ġarrow": 3098,
      "Ġmagnet": 3099,
      "ilt": 3100,
      "Ġshiver": 3101,
      "Ġcharm": 3102,
      "Ġmiserable": 3103,
      "If": 3104,
      "Ġcrayon": 3105,
      "amond": 3106,
      "ours": 3107,
      "Ġorig": 3108,
      "Tommy": 3109,
      "Ġdolph": 3110,
      "Ġtwig": 3111,
      "Ġeng": 3112,
      "Ġserious": 3113,
      "Ġmodern": 3114,
      "cil": 3115,
      "dile": 3116,
      "Ġzip": 3117,
      "codile": 3118,
      "Ġdiamond": 3119,
      "mbre": 3120,
      "How": 3121,
      "ube": 3122,
      "Ġneedle": 3123,
      "ungle": 3124,
      "Ġfilthy": 3125,
      "Ġumbre": 3126,
      "Ġcheap": 3127,
      "zzy": 3128,
      "Ġmole": 3129,
      "inal": 3130,
      "Ġpencil": 3131,
      "Ġpigeon": 3132,
      "Ġquarrel": 3133,
      "oby": 3134,
      "Ġhouses": 3135,
      "Ġtricks": 3136,
      "Ġpopcorn": 3137,
      "Ġchoose": 3138,
      "Ġshows": 3139,
      "Ġfis": 3140,
      "Ġlifted": 3141,
      "pes": 3142,
      "Ġfountain": 3143,
      "Ġguit": 3144,
      "Ġparrot": 3145,
      "Ġreliable": 3146,
      "Ġpir": 3147,
      "Ġbeet": 3148,
      "Ġisland": 3149,
      "Ġsmoke": 3150,
      "cles": 3151,
      "Ġremind": 3152,
      "llip": 3153,
      "Ġonion": 3154,
      "Ġjungle": 3155,
      "Ġcaterp": 3156,
      "Ġbrace": 3157,
      "Ġsteal": 3158,
      "llipop": 3159,
      "Ġcaterpill": 3160,
      "Ġang": 3161,
      "urkey": 3162,
      "Ġlean": 3163,
      "Ġrecord": 3164,
      "Ġoriginal": 3165,
      "Ġspring": 3166,
      "Ġcrocodile": 3167,
      "Ġlollipop": 3168,
      "Ġrag": 3169,
      "Ġcomb": 3170,
      "Ġcollar": 3171,
      "Ġtank": 3172,
      "Ġneeds": 3173,
      "Ġdest": 3174,
      "Ġcharming": 3175,
      "Ġcube": 3176,
      "Ġprize": 3177,
      "Ġtube": 3178,
      "atch": 3179,
      "Ġthoughtful": 3180,
      "Ġpicks": 3181,
      "Ġcomput": 3182,
      "Ġturkey": 3183,
      "Ġkissed": 3184,
      "host": 3185,
      "Ġplayful": 3186,
      "Ġcarp": 3187,
      "asses": 3188,
      "Ġcrystal": 3189,
      "Ġgarage": 3190,
      "Ġcrane": 3191,
      "Ġpassed": 3192,
      "appy": 3193,
      "Ġharder": 3194,
      "Ġbelt": 3195,
      "Ġcompet": 3196,
      "Ġmovie": 3197,
      "Ġcaterpillar": 3198,
      "Ġtor": 3199,
      "Ġvine": 3200,
      "Ġpopular": 3201,
      "Ġghost": 3202,
      "ages": 3203,
      "Ġshrimp": 3204,
      "Ġheal": 3205,
      "Ġsauce": 3206,
      "Ġroof": 3207,
      "Ġstream": 3208,
      "ulu": 3209,
      "Ġpasta": 3210,
      "Ġsalad": 3211,
      "Ġfigure": 3212,
      "Ġanx": 3213,
      "Ġguitar": 3214,
      "Ġcarpet": 3215,
      "Ġpian": 3216,
      "ilty": 3217,
      "Ġflute": 3218,
      "Ġguilty": 3219,
      "Ġavocado": 3220,
      "Ġanxious": 3221,
      "Ġhopping": 3222,
      "Ġgem": 3223,
      "Ġnail": 3224,
      "Ġgrace": 3225,
      "Ġpiano": 3226,
      "Ġcop": 3227,
      "atter": 3228,
      "Ġbuilt": 3229,
      "Ġeraser": 3230,
      "Ġtap": 3231,
      "inary": 3232,
      "als": 3233,
      "Ġstudy": 3234,
      "Ġcarrots": 3235,
      "edy": 3236,
      "Ġstanding": 3237,
      "Ġpress": 3238,
      "Ġmeat": 3239,
      "Ġruined": 3240,
      "Ġknot": 3241,
      "cream": 3242,
      "Ġsuit": 3243,
      "Ġfork": 3244,
      "ĠSammy": 3245,
      "Ġcomputer": 3246,
      "Ġenv": 3247,
      "Ġbatter": 3248,
      "ano": 3249,
      "Ġtem": 3250,
      "hip": 3251,
      "Ġmotorcycle": 3252,
      "Ġengine": 3253,
      "Ġcamera": 3254,
      "Ġtorn": 3255,
      "Ġears": 3256,
      "Ġvegetables": 3257,
      "enny": 3258,
      "Ġrh": 3259,
      "Ġcompass": 3260,
      "io": 3261,
      "berries": 3262,
      "Ġchain": 3263,
      "lcano": 3264,
      "Ġwrapped": 3265,
      "Ġtooth": 3266,
      "ither": 3267,
      "Ġones": 3268,
      "Ġhappiness": 3269,
      "Ġfriendship": 3270,
      "Ġhurts": 3271,
      "Ġmetal": 3272,
      "Ġflashlight": 3273,
      "Ġumbrella": 3274,
      "Ġpow": 3275,
      "Ġcheerful": 3276,
      "chair": 3277,
      "Ġtears": 3278,
      "Ġdeaf": 3279,
      "zed": 3280,
      "Ġanswered": 3281,
      "igator": 3282,
      "Ġlicked": 3283,
      "Ġloop": 3284,
      "Ġjug": 3285,
      "Ġinvited": 3286,
      "Ġwheat": 3287,
      "Ġhook": 3288,
      "Ġscale": 3289,
      "ext": 3290,
      "Ġhumble": 3291,
      "Ġangel": 3292,
      "Ġcompassion": 3293,
      "Ġmush": 3294,
      "Ġpengu": 3295,
      "Ġsink": 3296,
      "ĠMum": 3297,
      "Ġfluffy": 3298,
      "Ġvolcano": 3299,
      "Ġregular": 3300,
      "opard": 3301,
      "Ġarmchair": 3302,
      "Ġbeetle": 3303,
      "Ġcomet": 3304,
      "Ġraven": 3305,
      "Ġhammer": 3306,
      "ubby": 3307,
      "Ġhoop": 3308,
      "ĠToday": 3309,
      "Ġlibr": 3310,
      "Ġrode": 3311,
      "ĠJake": 3312,
      "Ġcrack": 3313,
      "Ġcere": 3314,
      "Ġalligator": 3315,
      "Ġcrawled": 3316,
      "Ġmelon": 3317,
      "Ġrep": 3318,
      "ĠSn": 3319,
      "Ġwalks": 3320,
      "Ġtroubled": 3321,
      "Ġmelt": 3322,
      "anger": 3323,
      "Ġstack": 3324,
      "Ġnod": 3325,
      "oin": 3326,
      "Ġlit": 3327,
      "Ġchubby": 3328,
      "Ġlocked": 3329,
      "Ġcompetit": 3330,
      "ief": 3331,
      "Ġmushroom": 3332,
      "Ġcereal": 3333,
      "Mum": 3334,
      "Ġwip": 3335,
      "Ġboys": 3336,
      "Ġswe": 3337,
      "Ġpersist": 3338,
      "cident": 3339,
      "omes": 3340,
      "Ġtriang": 3341,
      "Ġharmless": 3342,
      "Ġpenny": 3343,
      "Ġfeathers": 3344,
      "Ġenvious": 3345,
      "Ġsle": 3346,
      "Ġrestless": 3347,
      "Ġrid": 3348,
      "Ġliz": 3349,
      "Ġuncom": 3350,
      "Ġyogurt": 3351,
      "Ġordinary": 3352,
      "Ġuncomfortable": 3353,
      "Ġhalf": 3354,
      "Ġhelps": 3355,
      "Ġhelpless": 3356,
      "Ġleopard": 3357,
      "Ġplanet": 3358,
      "Ġbracelet": 3359,
      "Ġtemp": 3360,
      "Ġtag": 3361,
      "Their": 3362,
      "ellig": 3363,
      "Ġmailbox": 3364,
      "Ġpoured": 3365,
      "Ġsoldier": 3366,
      "Ġdisappoin": 3367,
      "Ġnoteb": 3368,
      "Ġintellig": 3369,
      "Ġscoot": 3370,
      "Ġnotebook": 3371,
      "ulb": 3372,
      "Ġusing": 3373,
      "Ġspinning": 3374,
      "Ġcandle": 3375,
      "Ġoffice": 3376,
      "Ġdesk": 3377,
      "Ġyoga": 3378,
      "ging": 3379,
      "Bobo": 3380,
      "Ġhappening": 3381,
      "Ġgraceful": 3382,
      "coa": 3383,
      "Ġcrawl": 3384,
      "Ġpersistent": 3385,
      "Jim": 3386,
      "Ġshape": 3387,
      "ĠOK": 3388,
      "Ġwire": 3389,
      "Ġdust": 3390,
      "Ġpale": 3391,
      "Ġaccident": 3392,
      "Ġspill": 3393,
      "Ġboxes": 3394,
      "Ġdolphin": 3395,
      "Ġcompassionate": 3396,
      "Ġlizard": 3397,
      "Ġbicy": 3398,
      "atient": 3399,
      "ĠLittle": 3400,
      "ĠLulu": 3401,
      "Ġspun": 3402,
      "Ġbulb": 3403,
      "Ġlying": 3404,
      "Ġmug": 3405,
      "Ġshield": 3406,
      "Ġenc": 3407,
      "ebra": 3408,
      "Ġradio": 3409,
      "Ġfather": 3410,
      "Ġsailed": 3411,
      "Ġcost": 3412,
      "Ġcoins": 3413,
      "Ġpracticed": 3414,
      "pack": 3415,
      "Ġspend": 3416,
      "Ġsleeping": 3417,
      "Ġdeliver": 3418,
      "ĠBuzz": 3419,
      "uth": 3420,
      "Ġforward": 3421,
      "Ġcomplet": 3422,
      "Ġwhispered": 3423,
      "Ġmop": 3424,
      "Ġload": 3425,
      "Ġmeant": 3426,
      "anda": 3427,
      "Jane": 3428,
      "Ġzebra": 3429,
      "Ġdelight": 3430,
      "Ġmatt": 3431,
      "Ġcact": 3432,
      "Ġoat": 3433,
      "Ġnicely": 3434,
      "Ġgiving": 3435,
      "Ġticket": 3436,
      "Ġintelligent": 3437,
      "ped": 3438,
      "ĠEven": 3439,
      "ĠEmily": 3440,
      "Ġbase": 3441,
      "Ġjellyfish": 3442,
      "Go": 3443,
      "isted": 3444,
      "Ġskull": 3445,
      "Ġmuffin": 3446,
      "Ġhedge": 3447,
      "azz": 3448,
      "Ġquestions": 3449,
      "ulif": 3450,
      "Ġalert": 3451,
      "Ġcase": 3452,
      "Ġthief": 3453,
      "Ġyaw": 3454,
      "Ġchalk": 3455,
      "Ġtrunk": 3456,
      "Ġhomes": 3457,
      "oto": 3458,
      "Ġbees": 3459,
      "Ġshut": 3460,
      "Ġtrucks": 3461,
      "Ġwishes": 3462,
      "ĠSh": 3463,
      "Ġscatter": 3464,
      "asing": 3465,
      "Ġador": 3466,
      "Ġresc": 3467,
      "Ġreturned": 3468,
      "uliflower": 3469,
      "Ġshade": 3470,
      "Ġimpatient": 3471,
      "Ġcelebrate": 3472,
      "Ġdisappointed": 3473,
      "Ġsquash": 3474,
      "Ġspeed": 3475,
      "Ġcactus": 3476,
      "Ġcocoa": 3477,
      "essie": 3478,
      "Ġharsh": 3479,
      "ye": 3480,
      "Ġsniff": 3481,
      "Ġcauliflower": 3482,
      "dom": 3483,
      "Ġprun": 3484,
      "Ġgifted": 3485,
      "Ġscreen": 3486,
      "Ġglove": 3487,
      "Ġdreams": 3488,
      "Ġbounced": 3489,
      "Ġdestro": 3490,
      "Ġslept": 3491,
      "Ġadorable": 3492,
      "Ġvide": 3493,
      "Ġlouder": 3494,
      "Ġcupboard": 3495,
      "Ġjudge": 3496,
      "Ġtunn": 3497,
      "Ġcreate": 3498,
      "Ġwaffle": 3499,
      "Ġtunnel": 3500,
      "Ġpro": 3501,
      "Ġskin": 3502,
      "Ġstranger": 3503,
      "Ġgrown": 3504,
      "ten": 3505,
      "Ġweek": 3506,
      "Ġcartoon": 3507,
      "Ġmattress": 3508,
      "ete": 3509,
      "Ġunlock": 3510,
      "Ġed": 3511,
      "Ġbump": 3512,
      "Ġsaying": 3513,
      "Ġbehave": 3514,
      "Ġveil": 3515,
      "Ġpoke": 3516,
      "Ġcompl": 3517,
      "Ġstronger": 3518,
      "Ġwalls": 3519,
      "Ġlively": 3520,
      "Ġdiary": 3521,
      "Ġsil": 3522,
      "Ġsheet": 3523,
      "Ġdecide": 3524,
      "acht": 3525,
      "Ġfirew": 3526,
      "quit": 3527,
      "Ġenvel": 3528,
      "Ġways": 3529,
      "Ġtrack": 3530,
      "Ġthemselves": 3531,
      "Ġmitten": 3532,
      "Ġinse": 3533,
      "Ġbarber": 3534,
      "ccol": 3535,
      "Ġbin": 3536,
      "Ġfu": 3537,
      "Ġsung": 3538,
      "Ġshells": 3539,
      "Ġtriangle": 3540,
      "ccoli": 3541,
      "squit": 3542,
      "Ġpit": 3543,
      "Ġmosquit": 3544,
      "Ġacce": 3545,
      "Ġspeak": 3546,
      "elery": 3547,
      "aze": 3548,
      "ĠPolly": 3549,
      "Ġtravel": 3550,
      "Ġcoo": 3551,
      "Ġyacht": 3552,
      "Ġeventually": 3553,
      "Ġtemple": 3554,
      "Ġbicycle": 3555,
      "Ġfootball": 3556,
      "Ġcompetitive": 3557,
      "Ġforth": 3558,
      "Ġshowing": 3559,
      "Ġskipped": 3560,
      "Ġfirework": 3561,
      "Ġmosquito": 3562,
      "vator": 3563,
      "Ġbull": 3564,
      "Ġcob": 3565,
      "Ġthread": 3566,
      "Ġexcite": 3567,
      "cut": 3568,
      "lies": 3569,
      "Ġsend": 3570,
      "Ġcelery": 3571,
      "Ġparade": 3572,
      "Ġelevator": 3573,
      "ating": 3574,
      "Ġtrap": 3575,
      "lasses": 3576,
      "web": 3577,
      "ĠTina": 3578,
      "Sarah": 3579,
      "Ġinsect": 3580,
      "work": 3581,
      "Ġpoem": 3582,
      "Ġsunglasses": 3583,
      "Ġstum": 3584,
      "ions": 3585,
      "Ġdeter": 3586,
      "Ġcable": 3587,
      "Ġpole": 3588,
      "ĠRose": 3589,
      "Ġencou": 3590,
      "Ġcobweb": 3591,
      "esday": 3592,
      "Ġtruth": 3593,
      "Ġbroccoli": 3594,
      "Ġstretch": 3595,
      "ik": 3596,
      "ĠToby": 3597,
      "Ġcamp": 3598,
      "Ġstation": 3599,
      "Ġuncle": 3600,
      "Ġlaughs": 3601,
      "Ġbandage": 3602,
      "asher": 3603,
      "Ġradish": 3604,
      "Ġenth": 3605,
      "Ġsurf": 3606,
      "Gra": 3607,
      "Ġorder": 3608,
      "Ġhotel": 3609,
      "Ġsteak": 3610,
      "Ġteleph": 3611,
      "Ġdeterm": 3612,
      "Ġbiggest": 3613,
      "Ġwheels": 3614,
      "Ġcricket": 3615,
      "Ġlibrary": 3616,
      "Ġscooter": 3617,
      "acket": 3618,
      "Ġcleaning": 3619,
      "Ġcounting": 3620,
      "Ġnumbers": 3621,
      "Ġtelephone": 3622,
      "erop": 3623,
      "Ġonce": 3624,
      "Ġrubbed": 3625,
      "Ġvest": 3626,
      "Ġraft": 3627,
      "Ġdestroy": 3628,
      "eropl": 3629,
      "head": 3630,
      "Ġlearning": 3631,
      "usia": 3632,
      "Ġenthusia": 3633,
      "Ġaeropl": 3634,
      "Ġpony": 3635,
      "aged": 3636,
      "Ġsneeze": 3637,
      "Ġignorant": 3638,
      "urb": 3639,
      "Ġframe": 3640,
      "Ġpointing": 3641,
      "washer": 3642,
      "Ġjacket": 3643,
      "rage": 3644,
      "Ġfireman": 3645,
      "Ġlights": 3646,
      "Ġguard": 3647,
      "Ġcush": 3648,
      "Ġple": 3649,
      "uring": 3650,
      "ĠFr": 3651,
      "ĠPipp": 3652,
      "Ġbushes": 3653,
      "Ġdishwasher": 3654,
      "ache": 3655,
      "Ġsplit": 3656,
      "Ġmixer": 3657,
      "case": 3658,
      "Ġpolish": 3659,
      "Ġot": 3660,
      "Ġpun": 3661,
      "Ġotter": 3662,
      "Ġshort": 3663,
      "Ġrod": 3664,
      "Ġuniver": 3665,
      "Ġearth": 3666,
      "Ġprep": 3667,
      "Ġadded": 3668,
      "Ġplayground": 3669,
      "Ġyet": 3670,
      "Ġedge": 3671,
      "ital": 3672,
      "Ġdisturb": 3673,
      "Ġfolder": 3674,
      "Ġglowing": 3675,
      "Ġpowder": 3676,
      "Ġpanda": 3677,
      "Ġpost": 3678,
      "Ġsort": 3679,
      "Ġthu": 3680,
      "Ġswitch": 3681,
      "Ġgathered": 3682,
      "ĠTweet": 3683,
      "Timmy": 3684,
      "Ġdistant": 3685,
      "Mama": 3686,
      "Ġtummy": 3687,
      "Ġhosp": 3688,
      "Ġfalls": 3689,
      "Ġhospital": 3690,
      "Ġwallet": 3691,
      "Ġmarble": 3692,
      "Ġpenguin": 3693,
      "Ġstaff": 3694,
      "?\".": 3695,
      "Ġattract": 3696,
      "Ġjournal": 3697,
      "Ġslides": 3698,
      "Ġcomplete": 3699,
      "Ġstrugg": 3700,
      "Ġtear": 3701,
      "Ġquit": 3702,
      "'d": 3703,
      "time": 3704,
      "dest": 3705,
      "Ġattic": 3706,
      "Ġdecorate": 3707,
      "Molly": 3708,
      "utes": 3709,
      "Ġoil": 3710,
      "Ġrot": 3711,
      "Ġweep": 3712,
      "Ġattractive": 3713,
      "Ġbri": 3714,
      "Ġcurt": 3715,
      "Ġbookcase": 3716,
      "aky": 3717,
      "Ġbarking": 3718,
      "ention": 3719,
      "Ġreward": 3720,
      "Ġroot": 3721,
      "ĠFo": 3722,
      "Ġrice": 3723,
      "Ġcooked": 3724,
      "Ġcurtain": 3725,
      "ject": 3726,
      "Ġitch": 3727,
      "iew": 3728,
      "Ġbarrel": 3729,
      "Ġminer": 3730,
      "Ġenvelope": 3731,
      "Ġolive": 3732,
      "Ġgrowl": 3733,
      "Ġcalling": 3734,
      "ĠPoppy": 3735,
      "Ġhunt": 3736,
      "Ġnurse": 3737,
      "Ġsoar": 3738,
      "Ġloudly": 3739,
      "Ġaeroplane": 3740,
      "ines": 3741,
      "Ġherb": 3742,
      "Ġtray": 3743,
      "Ġkay": 3744,
      "Ġscrew": 3745,
      "Ġview": 3746,
      "Ġkindness": 3747,
      "ision": 3748,
      "Ġknows": 3749,
      "Ġmodest": 3750,
      "Ġminutes": 3751,
      "iki": 3752,
      "ĠMiss": 3753,
      "Ġarg": 3754,
      "stic": 3755,
      "Ġhall": 3756,
      "illa": 3757,
      "Ġpebble": 3758,
      "Ġpatch": 3759,
      "Ġorganize": 3760,
      "Well": 3761,
      "par": 3762,
      "htub": 3763,
      "Ġseal": 3764,
      "Ġmeadow": 3765,
      "Ġvi": 3766,
      "Ġcooler": 3767,
      "Ġbuttons": 3768,
      "aving": 3769,
      "Ġled": 3770,
      "arian": 3771,
      "Ġflame": 3772,
      "ĠDan": 3773,
      "Ġtripped": 3774,
      "Ġhaircut": 3775,
      "Ġbathtub": 3776,
      "Ġpackage": 3777,
      "Fluffy": 3778,
      "per": 3779,
      "Ġoy": 3780,
      "Ġspear": 3781,
      "ushed": 3782,
      "Ġpee": 3783,
      "Ġenthusiastic": 3784,
      "Ġbubble": 3785,
      "Ġsupport": 3786,
      "Ġcell": 3787,
      "usie": 3788,
      "Ġbrothers": 3789,
      "we": 3790,
      "Ġwool": 3791,
      "Ġeither": 3792,
      "Ġimpro": 3793,
      "Ġmild": 3794,
      "Ġmanaged": 3795,
      "play": 3796,
      "Ġcolour": 3797,
      "Ġfisher": 3798,
      "irit": 3799,
      "Ġitself": 3800,
      "Ġcooking": 3801,
      "Ġwiped": 3802,
      "Give": 3803,
      "bul": 3804,
      "Ġdive": 3805,
      "Ġgolf": 3806,
      "arry": 3807,
      "Ġsandbox": 3808,
      "Ġmarry": 3809,
      "Ġblackboard": 3810,
      "vet": 3811,
      "Ġok": 3812,
      "Ġambul": 3813,
      "Ġrepair": 3814,
      "Ġambulance": 3815,
      "Ġknight": 3816,
      "Ġspell": 3817,
      "Ġcoal": 3818,
      "Ġskip": 3819,
      "Ġreading": 3820,
      "Ġkayak": 3821,
      "Ġribb": 3822,
      "ophone": 3823,
      "ffe": 3824,
      "tern": 3825,
      "Ġflea": 3826,
      "ffee": 3827,
      "Ġsepar": 3828,
      "Ġfactor": 3829,
      "ĠPete": 3830,
      "Ġdisplay": 3831,
      "old": 3832,
      "Ġaut": 3833,
      "Ġrever": 3834,
      "Ġsweater": 3835,
      "Ġvideo": 3836,
      "Ġdetermined": 3837,
      "la": 3838,
      "Ġgear": 3839,
      "ĠSunny": 3840,
      "Ġeye": 3841,
      "Ġcity": 3842,
      "Ġsafely": 3843,
      "Ġhipp": 3844,
      "Ġthose": 3845,
      "Ġmem": 3846,
      "ĠPeter": 3847,
      "Ġstrawberry": 3848,
      "Ġfactory": 3849,
      "Ġsaus": 3850,
      "Ġrepe": 3851,
      "umb": 3852,
      "Ġspirit": 3853,
      "Ġdrawings": 3854,
      "Ġten": 3855,
      "Ġpine": 3856,
      "Ġtrash": 3857,
      "Ġenjoying": 3858,
      "Ġdriving": 3859,
      "Ġsuggest": 3860,
      "Ġsalt": 3861,
      "ĠPeople": 3862,
      "Ġur": 3863,
      "Ġknock": 3864,
      "Ġnovel": 3865,
      "Ġmeans": 3866,
      "Ġbathe": 3867,
      "Ġsteps": 3868,
      "Ġhandle": 3869,
      "olin": 3870,
      "Ġfilm": 3871,
      "Ġbaseball": 3872,
      "Ġcushion": 3873,
      "Ġhours": 3874,
      "Ġgym": 3875,
      "Ġcane": 3876,
      "Ġclub": 3877,
      "Ġflour": 3878,
      "ĠRob": 3879,
      "Ġdisappeared": 3880,
      "Ġimagine": 3881,
      "See": 3882,
      "Ġfive": 3883,
      "ric": 3884,
      "Ġwhenever": 3885,
      "Ġfastest": 3886,
      "cing": 3887,
      "ĠLook": 3888,
      "Ġfisherman": 3889,
      "leton": 3890,
      "keleton": 3891,
      "Ġsight": 3892,
      "Ġrise": 3893,
      "Ġmule": 3894,
      "ĠEverywhere": 3895,
      "Ġdreamed": 3896,
      "Ġviolin": 3897,
      "Re": 3898,
      "Ġfest": 3899,
      "Ġmissile": 3900,
      "Ġnotice": 3901,
      "Ġcoffee": 3902,
      "Ġhurry": 3903,
      "Ġtask": 3904,
      "Ġtroph": 3905,
      "Ġwife": 3906,
      "obile": 3907,
      "reek": 3908,
      "Ġopens": 3909,
      "Ġzipp": 3910,
      "Ġbags": 3911,
      "Ġpastry": 3912,
      "Ġhippo": 3913,
      "Bye": 3914,
      "nam": 3915,
      "ready": 3916,
      "Ġcreek": 3917,
      "seum": 3918,
      "Ġperm": 3919,
      "Ġgiggled": 3920,
      "ival": 3921,
      "Ġmuseum": 3922,
      "Ġcups": 3923,
      "Ġearly": 3924,
      "Ġhanging": 3925,
      "Ġpor": 3926,
      "omobile": 3927,
      "Ġalready": 3928,
      "Ġvend": 3929,
      "Ġoyster": 3930,
      "Ġautomobile": 3931,
      "Ġbill": 3932,
      "ĠBet": 3933,
      "Ġwhip": 3934,
      "Ġmagaz": 3935,
      "Ġpacked": 3936,
      "Ġmessage": 3937,
      "ait": 3938,
      "Ġpurse": 3939,
      "Ġoften": 3940,
      "Ġexplain": 3941,
      "Ġattach": 3942,
      "Ġstumbled": 3943,
      "Ġtrophy": 3944,
      "Ġcord": 3945,
      "Ġfestival": 3946,
      "ilot": 3947,
      "Ġcardboard": 3948,
      "Ġoak": 3949,
      "Ġshaking": 3950,
      "Ġfrogs": 3951,
      "Ġthinking": 3952,
      "Ġshocked": 3953,
      "Ġtools": 3954,
      "come": 3955,
      "ination": 3956,
      "Ġink": 3957,
      "Ġlaser": 3958,
      "Ġholes": 3959,
      "Ġdrawer": 3960,
      "Ġvendor": 3961,
      "Ġow": 3962,
      "ature": 3963,
      "Ġmakeup": 3964,
      "ĠBirdy": 3965,
      "Ġstairs": 3966,
      "ugged": 3967,
      "Ġpeach": 3968,
      "bol": 3969,
      "Ġsailor": 3970,
      "Ġsparkly": 3971,
      "Ġmicr": 3972,
      "hic": 3973,
      "Ġgor": 3974,
      "Ġholds": 3975,
      "Ġvehic": 3976,
      "Ġsett": 3977,
      "nament": 3978,
      "Ġbillboard": 3979,
      "Ġnewsp": 3980,
      "Ġornament": 3981,
      "Ġthunder": 3982,
      "Ġmicrophone": 3983,
      "Ġsize": 3984,
      "ĠBessie": 3985,
      "Ġjunk": 3986,
      "ailable": 3987,
      "Ġpattern": 3988,
      "ymbol": 3989,
      "ĠV": 3990,
      "Ġpear": 3991,
      "Ġserve": 3992,
      "Ġfuel": 3993,
      "nger": 3994,
      "aroo": 3995,
      "Ġrolling": 3996,
      "angaroo": 3997,
      "Ġjewelry": 3998,
      "Is": 3999,
      "Ġnames": 4000,
      "Ġtrail": 4001,
      "Ġpal": 4002,
      "ured": 4003,
      "Ġvalu": 4004,
      "Ġmarched": 4005,
      "Ġcomplain": 4006,
      "Al": 4007,
      "Ġpilot": 4008,
      "Ġkangaroo": 4009,
      "Ġcheck": 4010,
      "Ġpicking": 4011,
      "ney": 4012,
      "ĠKim": 4013,
      "Ġbikes": 4014,
      "Ġdiscovered": 4015,
      "Ġskirt": 4016,
      "Ġchess": 4017,
      "Ġdrain": 4018,
      "Ġavailable": 4019,
      "Ġpinch": 4020,
      "Ġahead": 4021,
      "Ġskeleton": 4022,
      "Ġcows": 4023,
      "Ġporch": 4024,
      "ckey": 4025,
      "loo": 4026,
      "Ġcards": 4027,
      "Ġhockey": 4028,
      "Ġshrink": 4029,
      "Ġrescue": 4030,
      "Ġgrapes": 4031,
      "ĠBuzzy": 4032,
      "ĠSnow": 4033,
      "Ġpalace": 4034,
      "imney": 4035,
      "Ġblin": 4036,
      "Ġlotion": 4037,
      "Ġtut": 4038,
      "Ġgrandpa": 4039,
      "Ġig": 4040,
      "ense": 4041,
      "Ġagainst": 4042,
      "istol": 4043,
      "Ġstops": 4044,
      "body": 4045,
      "Ġfreez": 4046,
      "Ġigloo": 4047,
      "Ġsne": 4048,
      "Ġcircles": 4049,
      "Ġgasped": 4050,
      "Ġlabel": 4051,
      "Ġexcitement": 4052,
      "lu": 4053,
      "ucet": 4054,
      "Ġson": 4055,
      "Ġsymbol": 4056,
      "Ġstared": 4057,
      "Ġjuicy": 4058,
      "Joe": 4059,
      "Ġpractice": 4060,
      "Ġcherries": 4061,
      "Ġmagazine": 4062,
      "Ġpretending": 4063,
      "Ġmaze": 4064,
      "Ġrake": 4065,
      "opus": 4066,
      "Ġfaucet": 4067,
      "Ġalarm": 4068,
      "place": 4069,
      "Ġpainter": 4070,
      "Ġrealised": 4071,
      "Ġpirate": 4072,
      "Ġblouse": 4073,
      "apers": 4074,
      "Ġtightly": 4075,
      "Ġtornado": 4076,
      "Ġgorilla": 4077,
      "Ġpistol": 4078,
      "ĠCo": 4079,
      "ctopus": 4080,
      "Ġtrains": 4081,
      "iest": 4082,
      "Ġopera": 4083,
      "ĠKiki": 4084,
      "Ġgrowing": 4085,
      "Ġresist": 4086,
      "ium": 4087,
      "Ġgrill": 4088,
      "keep": 4089,
      "There": 4090,
      "Ġpoked": 4091,
      "Ġrestaur": 4092,
      "Ġnapkin": 4093,
      "Ġmeeting": 4094,
      "Ġpeeked": 4095,
      "Ġnewspaper": 4096,
      "Ġtoile": 4097,
      "Ġped": 4098,
      "Ġcliff": 4099,
      "Ġchimney": 4100,
      "Ġtelling": 4101,
      "Ġinclu": 4102,
      "Ġmedal": 4103,
      "Ġhut": 4104,
      "Ġmay": 4105,
      "Ġmath": 4106,
      "Ġrail": 4107,
      "Ġanch": 4108,
      "iches": 4109,
      "Ġoats": 4110,
      "Ġtutor": 4111,
      "Billy": 4112,
      "Ow": 4113,
      "Wait": 4114,
      "Ġraz": 4115,
      "ceed": 4116,
      "Ġkne": 4117,
      "umber": 4118,
      "Ġtoilet": 4119,
      "Ġrece": 4120,
      "Ġquiz": 4121,
      "Ġbathrobe": 4122,
      "Ġsandwiches": 4123,
      "te": 4124,
      "Ġdisag": 4125,
      "Ġfireplace": 4126,
      "Ġboots": 4127,
      "Ġpressed": 4128,
      "Ġbutterflies": 4129,
      "Ġcabinet": 4130,
      "Ġvaluable": 4131,
      "Ġrestaurant": 4132,
      "helf": 4133,
      "ĠBinky": 4134,
      "Ġswinging": 4135,
      "Ġpassport": 4136,
      "Ġbattery": 4137,
      "Ġdess": 4138,
      "ately": 4139,
      "Ġoctopus": 4140,
      "Em": 4141,
      "Ġfile": 4142,
      "Ġmen": 4143,
      "omed": 4144,
      "Ġins": 4145,
      "Ġext": 4146,
      "Ġbookshelf": 4147,
      "Ġallowed": 4148,
      "Ġclimbing": 4149,
      "Ġblueberries": 4150,
      "Ġanchor": 4151,
      "ĠHere": 4152,
      "Ġlightning": 4153,
      "..": 4154,
      "vision": 4155,
      "Ġpopped": 4156,
      "Ġjumps": 4157,
      "affe": 4158,
      "Ġsuper": 4159,
      "Ġdistance": 4160,
      "Ġsucceed": 4161,
      "iron": 4162,
      "Ġtwir": 4163,
      "Ġoffered": 4164,
      "Ġlistening": 4165,
      "Ġlime": 4166,
      "Ġneat": 4167,
      "Ġbananas": 4168,
      "aid": 4169,
      "Ġbeep": 4170,
      "Ġchance": 4171,
      "Ġgrape": 4172,
      "Ġtelevision": 4173,
      "Ġstickers": 4174,
      "Ġtaller": 4175,
      "Ġfingers": 4176,
      "ron": 4177,
      "Ġdreaming": 4178,
      "Ġbeef": 4179,
      "Ġbelongs": 4180,
      "Ġax": 4181,
      "!\".": 4182,
      "ĠGrandpa": 4183,
      "Ġletters": 4184,
      "Ġceiling": 4185,
      "Ġjokes": 4186,
      "Ġtub": 4187,
      "Ġlend": 4188,
      "Ġlie": 4189,
      "Ġanyway": 4190,
      "Ġtowers": 4191,
      "Ġtease": 4192,
      "Ġfalling": 4193,
      "Ġstretched": 4194,
      "Ġagree": 4195,
      "Ġbasketball": 4196,
      "ĠTeddy": 4197,
      "Ġstad": 4198,
      "aches": 4199,
      "Ġsweetie": 4200,
      "Ġobject": 4201,
      "Ġaxe": 4202,
      "Ġstadium": 4203,
      "Daisy": 4204,
      "drobe": 4205,
      "Ġdoesn": 4206,
      "Ġchose": 4207,
      "Ġwardrobe": 4208,
      "Ġspilled": 4209,
      "Ġseparate": 4210,
      "vice": 4211,
      "Ġroared": 4212,
      "Ġleaving": 4213,
      "ampoo": 4214,
      "Ġfreezer": 4215,
      "Ġpapers": 4216,
      "ĠAre": 4217,
      "Ġgiraffe": 4218,
      "Ġrazor": 4219,
      "Ġextra": 4220,
      "riger": 4221,
      "Ġimprove": 4222,
      "Ġreverse": 4223,
      "rigerator": 4224,
      "htray": 4225,
      "ĠAlice": 4226,
      "Ġjail": 4227,
      "Ġrefrigerator": 4228,
      "xy": 4229,
      "Ġshampoo": 4230,
      "Ġleash": 4231,
      "Ġlaund": 4232,
      "Jimmy": 4233,
      "ĠPippin": 4234,
      "Ġzipper": 4235,
      "Ġlaundry": 4236,
      "ĠSusie": 4237,
      "ĠPandy": 4238,
      "Ġsquirrels": 4239,
      "Ġrhin": 4240,
      "Ġnature": 4241,
      "Ġhappier": 4242,
      "ogn": 4243,
      "ĠGive": 4244,
      "Ġrules": 4245,
      "ĠOlive": 4246,
      "keeper": 4247,
      "Ġdessert": 4248,
      "Ġgrand": 4249,
      "Ġprov": 4250,
      "Ġanywhere": 4251,
      "Ġpeek": 4252,
      "Ġrecogn": 4253,
      "Ġsent": 4254,
      "Ġwaste": 4255,
      "Ġweather": 4256,
      "ĠDolly": 4257,
      "Ġmint": 4258,
      "Ġleaned": 4259,
      "Ġpleased": 4260,
      "eer": 4261,
      "Ġmummy": 4262,
      "Ġswamp": 4263,
      "Ġunite": 4264,
      "Ġhung": 4265,
      "fast": 4266,
      "ience": 4267,
      "Ġtheater": 4268,
      "ĠMar": 4269,
      "Ġashtray": 4270,
      "Ouch": 4271,
      "Ġfog": 4272,
      "inarian": 4273,
      "ĠBoun": 4274,
      "astic": 4275,
      "Ġbreakfast": 4276,
      "Ġpoint": 4277,
      "eterinarian": 4278,
      "ocer": 4279,
      "Ġiron": 4280,
      "elcome": 4281,
      "ĠWhere": 4282,
      "Ġveterinarian": 4283,
      "Ġadvice": 4284,
      "ĠRu": 4285,
      "Ġfavour": 4286,
      "Ġobser": 4287,
      "Did": 4288,
      "ected": 4289,
      "Ġsounded": 4290,
      "Ġlawn": 4291,
      "cu": 4292,
      "iture": 4293,
      "urniture": 4294,
      "Ġairport": 4295,
      "Ġinvite": 4296,
      "Ġimagined": 4297,
      "Ġstom": 4298,
      "Ġstable": 4299,
      "indeer": 4300,
      "ĠBetty": 4301,
      "Ġrhinocer": 4302,
      "Ġfurniture": 4303,
      "Ġplates": 4304,
      "urch": 4305,
      "Ġhappens": 4306,
      "Ġstirred": 4307,
      "Ġsqueeze": 4308,
      "lter": 4309,
      "Ġweigh": 4310,
      "Ġshelter": 4311,
      "Ġreindeer": 4312,
      "Ġsnap": 4313,
      "Ġbury": 4314,
      "peedy": 4315,
      "Ġriding": 4316,
      "Ġfavourite": 4317,
      "na": 4318,
      "ĠRed": 4319,
      "Mr": 4320,
      "res": 4321,
      "ionary": 4322,
      "Ġhate": 4323,
      "Ġspoke": 4324,
      "fa": 4325,
      "Ġbet": 4326,
      "rosc": 4327,
      "Ġrhinoceros": 4328,
      "roscope": 4329,
      "Ġslip": 4330,
      "gen": 4331,
      "Ġknob": 4332,
      "Ġswung": 4333,
      "Ġslipp": 4334,
      "Ġrubber": 4335,
      "ictionary": 4336,
      "Ġhanger": 4337,
      "Ġsurprises": 4338,
      "ations": 4339,
      "ummer": 4340,
      "Ġproblems": 4341,
      "Ġdisappear": 4342,
      "Ġblinked": 4343,
      "Ġlumber": 4344,
      "amber": 4345,
      "Ġpastel": 4346,
      "Ġsub": 4347,
      "Ġlawy": 4348,
      "alley": 4349,
      "Ġhunter": 4350,
      "low": 4351,
      "Ġdictionary": 4352,
      "Ġvalley": 4353,
      "Ġspoil": 4354,
      "ĠSpike": 4355,
      "Ġmusician": 4356,
      "Ġwarned": 4357,
      "Ġlip": 4358,
      "Ġhelper": 4359,
      "Ġchurch": 4360,
      "Ġwindows": 4361,
      "Ġmineral": 4362,
      "Ġwipe": 4363,
      "Ġrefused": 4364,
      "Ġchamber": 4365,
      "Ġshower": 4366,
      "Ġexcitedly": 4367,
      "ĠOw": 4368,
      "ĠZip": 4369,
      "Ġcostume": 4370,
      "asis": 4371,
      "stairs": 4372,
      "Ġbuckle": 4373,
      "Ġsunset": 4374,
      "Ġabove": 4375,
      "Ġhive": 4376,
      "Ġshovel": 4377,
      "Ġaccidentally": 4378,
      "Jill": 4379,
      "Ġwigg": 4380,
      "Ġcaring": 4381,
      "Ġunpack": 4382,
      "Ġshakes": 4383,
      "Ġmistakes": 4384,
      "Ġsausage": 4385,
      "Ġrac": 4386,
      "rmomet": 4387,
      "Ġphoto": 4388,
      "Ġlawyer": 4389,
      "zag": 4390,
      "Ġcomfort": 4391,
      "Ġclaw": 4392,
      "Ġraise": 4393,
      "ĠZoom": 4394,
      "night": 4395,
      "Ġoasis": 4396,
      "Ġmissing": 4397,
      "Ġprevent": 4398,
      "Ġaccept": 4399,
      "rmometer": 4400,
      "Ġcale": 4401,
      "Ġpoints": 4402,
      "Ġsearching": 4403,
      "Ġcrib": 4404,
      "Ġcalend": 4405,
      "med": 4406,
      "igzag": 4407,
      "ĠBill": 4408,
      "Ġwinter": 4409,
      "Ġtuna": 4410,
      "Ġlid": 4411,
      "Ġfrowned": 4412,
      "Ġcudd": 4413,
      "iday": 4414,
      "Ġinf": 4415,
      "Ġtrade": 4416,
      "ĠCarl": 4417,
      "Ġrespectful": 4418,
      "Ġadmire": 4419,
      "Ġsuggested": 4420,
      "Ġsummer": 4421,
      "Ġwine": 4422,
      "Ġthermometer": 4423,
      "Ġsofa": 4424,
      "Ġsadly": 4425,
      "Ġchasing": 4426,
      "Ġaw": 4427,
      "Ġyield": 4428,
      "rod": 4429,
      "Ġcarrying": 4430,
      "Ġignore": 4431,
      "Ġintrod": 4432,
      "Ġpair": 4433,
      "Ġperfume": 4434,
      "Ġsaving": 4435,
      "Ġfort": 4436,
      "Ġmeas": 4437,
      "asp": 4438,
      "Ġhoping": 4439,
      "Ġshouts": 4440,
      "Ġmicroscope": 4441,
      "Ġcalendar": 4442,
      "Ġberry": 4443,
      "render": 4444,
      "del": 4445,
      "ef": 4446,
      "Ġlic": 4447,
      "Ġhanded": 4448,
      "Ġvehicle": 4449,
      "Ġpage": 4450,
      "Ġplastic": 4451,
      "Ġfixing": 4452,
      "Ġargue": 4453,
      "Ġsuff": 4454,
      "Ġbent": 4455,
      "stri": 4456,
      "Ġhol": 4457,
      "mend": 4458,
      "Ġzoomed": 4459,
      "Ġholiday": 4460,
      "Ġunif": 4461,
      "angu": 4462,
      "Ġpages": 4463,
      "Ġmall": 4464,
      "Ġgro": 4465,
      "Ġchairs": 4466,
      "Ġpuddles": 4467,
      "Ġmystery": 4468,
      "Ġuniform": 4469,
      "Ch": 4470,
      "ĠSpeedy": 4471,
      "ĠHel": 4472,
      "Ġlives": 4473,
      "icer": 4474,
      "Ġlangu": 4475,
      "ommend": 4476,
      "Ġsocks": 4477,
      "Ġstarts": 4478,
      "Ġsubway": 4479,
      "veal": 4480,
      "Ġgoal": 4481,
      "Ġdancer": 4482,
      "Ġincre": 4483,
      "Ġrecommend": 4484,
      "icky": 4485,
      "Ġhuman": 4486,
      "aspoon": 4487,
      "ison": 4488,
      "Ġostri": 4489,
      "ĠMike": 4490,
      "Ġolder": 4491,
      "ĠPat": 4492,
      "Ġmodel": 4493,
      "Ġpulls": 4494,
      "Ġsilver": 4495,
      "Ġkneel": 4496,
      "cage": 4497,
      "Ġbirdcage": 4498,
      "Ġbrightly": 4499,
      "ĠY": 4500,
      "Ġreveal": 4501,
      "Ġrained": 4502,
      "ĠMrs": 4503,
      "Ġmonkeys": 4504,
      "Ġgrabs": 4505,
      "Ġsniffed": 4506,
      "ĠBow": 4507,
      "Ġtrem": 4508,
      "Ġleak": 4509,
      "thank": 4510,
      "Ġcherry": 4511,
      "Ġlicense": 4512,
      "aked": 4513,
      "Ġkinds": 4514,
      "Ġsupply": 4515,
      "Ġcur": 4516,
      "ero": 4517,
      "Ġnation": 4518,
      "Ġevening": 4519,
      "Ġfloat": 4520,
      "ola": 4521,
      "ĠBubbles": 4522,
      "Ġstrip": 4523,
      "Ġmass": 4524,
      "Ġended": 4525,
      "Ġart": 4526,
      "Ġsprayed": 4527,
      "Ġcolourful": 4528,
      "Will": 4529,
      "Ġputting": 4530,
      "Ġproudly": 4531,
      "Ġpushing": 4532,
      "Ġbeans": 4533,
      "Ġslippery": 4534,
      "Ġfeelings": 4535,
      "Ġremove": 4536,
      "Ġpup": 4537,
      "uggage": 4538,
      "Little": 4539,
      "Mummy": 4540,
      "sity": 4541,
      "Ġluggage": 4542,
      "Ġrushed": 4543,
      "Ġsoil": 4544,
      "ecause": 4545,
      "Ġsunr": 4546,
      "ĠCl": 4547,
      "Ġdelay": 4548,
      "Ġshone": 4549,
      "Your": 4550,
      "Ġfinds": 4551,
      "ĠEllie": 4552,
      "Ġinfant": 4553,
      "Ġdoors": 4554,
      "ĠWould": 4555,
      "Ġmustache": 4556,
      "apping": 4557,
      "Ġsurrender": 4558,
      "Ġadmired": 4559,
      "Ġprepare": 4560,
      "ricane": 4561,
      "Yay": 4562,
      "Ġreef": 4563,
      "Ġsticker": 4564,
      "Ġreplace": 4565,
      "Ġsteam": 4566,
      "Ġapron": 4567,
      "Ġsunrise": 4568,
      "ince": 4569,
      "ifi": 4570,
      "Ġteaspoon": 4571,
      "Ġpanic": 4572,
      "Ġostrich": 4573,
      "Next": 4574,
      "Ġgiggle": 4575,
      "Ġprune": 4576,
      "Ġfought": 4577,
      "Ġsticky": 4578,
      "Ġforgave": 4579,
      "ĠFreddy": 4580,
      "Ġdear": 4581,
      "Ġbreat": 4582,
      "Yuck": 4583,
      "eor": 4584,
      "Ġappl": 4585,
      "Ġcountry": 4586,
      "Ġregret": 4587,
      "aul": 4588,
      "ĠTed": 4589,
      "imed": 4590,
      "Ġweap": 4591,
      "Ġvac": 4592,
      "Ġbarks": 4593,
      "ĠNext": 4594,
      "chan": 4595,
      "Ġribbon": 4596,
      "Ġcrossed": 4597,
      "cer": 4598,
      "ason": 4599,
      "Ġchoice": 4600,
      "Ġshivering": 4601,
      "ĠLee": 4602,
      "Ġrepeat": 4603,
      "Ġsigh": 4604,
      "Ġclapping": 4605,
      "Ġrestore": 4606,
      "Ġsqueezed": 4607,
      "Ġdelighted": 4608,
      "Grandma": 4609,
      "Qu": 4610,
      "Ġsomewhere": 4611,
      "Ġmenu": 4612,
      "eorge": 4613,
      "chanic": 4614,
      "Ġmechanic": 4615,
      "ĠEnd": 4616,
      "Ġlions": 4617,
      "olog": 4618,
      "Ġport": 4619,
      "Ġevent": 4620,
      "ĠMandy": 4621,
      "wards": 4622,
      "Ġsoftly": 4623,
      "Ġimpressed": 4624,
      "Ġapolog": 4625,
      "Ġclassroom": 4626,
      "Ġx": 4627,
      "Ġfre": 4628,
      "hero": 4629,
      "Ġyawned": 4630,
      "Ġsuperhero": 4631,
      "Ġbeg": 4632,
      "ĠFl": 4633,
      "Ġclaws": 4634,
      "Ġrush": 4635,
      "men": 4636,
      "Ġtip": 4637,
      "cuss": 4638,
      "ĠHelp": 4639,
      "bles": 4640,
      "Ġsudden": 4641,
      "ĠMummy": 4642,
      "Ġbrighter": 4643,
      "Ġdishes": 4644,
      "Ġstud": 4645,
      "aud": 4646,
      "Ġdiscuss": 4647,
      "ĠOr": 4648,
      "Ġthanks": 4649,
      "ĠZoomy": 4650,
      "ĠUn": 4651,
      "Buddy": 4652,
      "Mary": 4653,
      "Ġranch": 4654,
      "Ġunh": 4655,
      "cond": 4656,
      "Ġcontent": 4657,
      "Ġbrick": 4658,
      "Ġshrugged": 4659,
      "Ġsneezed": 4660,
      "Ġshoulder": 4661,
      "Ġsplashing": 4662,
      "ĠAnnie": 4663,
      "nesday": 4664,
      "ednesday": 4665,
      "Ġsecond": 4666,
      "Ġcopper": 4667,
      "Ġlanguage": 4668,
      "Ġbend": 4669,
      "ĠLilly": 4670,
      "ĠJazz": 4671,
      "Ġcastles": 4672,
      "Ġreminded": 4673,
      "Ġbumped": 4674,
      "Ġplayer": 4675,
      "Ġspade": 4676,
      "Ġmeowed": 4677,
      "Ġener": 4678,
      "Ġpushes": 4679,
      "Ġexplored": 4680,
      "Ġexamine": 4681,
      "hter": 4682,
      "Ġcared": 4683,
      "Ġlaughter": 4684,
      "Ġflood": 4685,
      "Ġskill": 4686,
      "Ġletting": 4687,
      "ement": 4688,
      "Ġimagination": 4689,
      "Ġchirp": 4690,
      "Ġmatches": 4691,
      "Ġbreaks": 4692,
      "Ġtrusted": 4693,
      "riage": 4694,
      "Ġalive": 4695,
      "Ġspots": 4696,
      "ittens": 4697,
      "Ġsmells": 4698,
      "Daddy": 4699,
      "Ġdrops": 4700,
      "Ġsuffer": 4701,
      "ĠWednesday": 4702,
      "Ġthrowing": 4703,
      "Ġunhappy": 4704,
      "erc": 4705,
      "Ġsty": 4706,
      "Ġflies": 4707,
      "Ġbears": 4708,
      "Ġkeeping": 4709,
      "Ġprayed": 4710,
      "cast": 4711,
      "ĠBig": 4712,
      "Ġscore": 4713,
      "ĠDave": 4714,
      "ĠPenny": 4715,
      "ĠCoco": 4716,
      "Ġmassage": 4717,
      "Ġapplaud": 4718,
      "Ġfresh": 4719,
      "ĠFifi": 4720,
      "Ġcalls": 4721,
      "ĠRo": 4722,
      "Ġsandcast": 4723,
      "Ġburned": 4724,
      "bor": 4725,
      "Ġbaking": 4726,
      "Ġdem": 4727,
      "Ġparts": 4728,
      "Ġchickens": 4729,
      "Ready": 4730,
      "Ġtremble": 4731,
      "ucture": 4732,
      "Ġsnowball": 4733,
      "Ġsparkled": 4734,
      "Ġnetwork": 4735,
      "Ġvacation": 4736,
      "All": 4737,
      "Ġheat": 4738,
      "Ġstructure": 4739,
      "Ġoffer": 4740,
      "Ġhurricane": 4741,
      "Ġscratch": 4742,
      "Ġpunish": 4743,
      "inking": 4744,
      "Ġsteel": 4745,
      "Ġthrows": 4746,
      "unday": 4747,
      "Ġolives": 4748,
      "year": 4749,
      "Ġmention": 4750,
      "Ġstarting": 4751,
      "Ġmyself": 4752,
      "Ġsnugg": 4753,
      "Ġtracks": 4754,
      "Ġcoats": 4755,
      "heart": 4756,
      "Ġeaten": 4757,
      "Ġfloated": 4758,
      "Ġminute": 4759,
      "Ġprovide": 4760,
      "Ġweapon": 4761,
      "ĠSunday": 4762,
      "Ġrow": 4763,
      "quest": 4764,
      "Ġinvit": 4765,
      "Ġdemand": 4766,
      "Ġhist": 4767,
      "Ġrequest": 4768,
      "Ġcrow": 4769,
      "ophie": 4770,
      "Ġwhisper": 4771,
      "Ġsettle": 4772,
      "Ġbuzz": 4773,
      "Ġharbor": 4774,
      "Ġtoe": 4775,
      "lex": 4776,
      "Ġleather": 4777,
      "Ġchecked": 4778,
      "Ġgiven": 4779,
      "Ġcandles": 4780,
      "Ġpedal": 4781,
      "Ġinsisted": 4782,
      "Ġhistory": 4783,
      "Ġexerc": 4784,
      "Ġpaid": 4785,
      "Ġpigs": 4786,
      "Ġhorses": 4787,
      "Emma": 4788,
      "Welcome": 4789,
      "ĠDog": 4790,
      "Ġrooms": 4791,
      "Ġmarriage": 4792,
      "Ġcourage": 4793,
      "ĠHoppy": 4794,
      "Ġgreedy": 4795,
      "Ġbadly": 4796,
      "ngth": 4797,
      "Ġthumb": 4798,
      "Ġstair": 4799,
      "Ġrabbits": 4800,
      "ĠUnder": 4801,
      "Ann": 4802,
      "Ġgain": 4803,
      "ĠSm": 4804,
      "Ġstrength": 4805,
      "Ġluck": 4806,
      "ĠElly": 4807,
      "Ġsweetheart": 4808,
      "house": 4809,
      "Ġdare": 4810,
      "Ġexcla": 4811,
      "Ġheads": 4812,
      "Ġwisdom": 4813,
      "arlie": 4814,
      "Alice": 4815,
      "Ġenergy": 4816,
      "Ġexpect": 4817,
      "Ġwre": 4818,
      "Ġplaced": 4819,
      "ffic": 4820,
      "Ġhearts": 4821,
      "Lisa": 4822,
      "Ġsoak": 4823,
      "Ġflapped": 4824,
      "Ġbouncing": 4825,
      "Ġwaffles": 4826,
      "Mimi": 4827,
      "Ġing": 4828,
      "isty": 4829,
      "Ġfreeze": 4830,
      "Before": 4831,
      "Ġlemons": 4832,
      "Ġfurt": 4833,
      "ĠFinny": 4834,
      "Ġobserve": 4835,
      "Ġstomach": 4836,
      "Ġexclaimed": 4837,
      "oe": 4838,
      "ĠMittens": 4839,
      "Ġvroom": 4840,
      "Ġtraffic": 4841,
      "acked": 4842,
      "ĠSharing": 4843,
      "Ġuniversity": 4844,
      "Ġbother": 4845,
      "Ġhopes": 4846,
      "redient": 4847,
      "Ġmarbles": 4848,
      "Ġblowing": 4849,
      "Ġingredient": 4850,
      "ĠSk": 4851,
      "Ġspike": 4852,
      "Ġplanned": 4853,
      "Ġcheek": 4854,
      "Ġapart": 4855,
      "Ġignored": 4856,
      "ĠHave": 4857,
      "Ġsew": 4858,
      "ops": 4859,
      "otten": 4860,
      "Ġscold": 4861,
      "ween": 4862,
      "Ġbetween": 4863,
      "raged": 4864,
      "Ġbeauty": 4865,
      "Ġplanes": 4866,
      "Ġbelieved": 4867,
      "Ġmailman": 4868,
      "Ġstrike": 4869,
      "Ġuniverse": 4870,
      "Ġfurther": 4871,
      "Ġhon": 4872,
      "Ġheel": 4873,
      "Ġupstairs": 4874,
      "ecting": 4875,
      "Ġfollowing": 4876,
      "Ġexper": 4877,
      "Ġingredients": 4878,
      "Mark": 4879,
      "ĠGrace": 4880,
      "Ġpermit": 4881,
      "Ġwhistled": 4882,
      "Ġpirates": 4883,
      "ially": 4884,
      "ĠWhenever": 4885,
      "Ġraining": 4886,
      "Ġhills": 4887,
      "Ġstamps": 4888,
      "eration": 4889,
      "ĠHarry": 4890,
      "Ġnobody": 4891,
      "Ġmoves": 4892,
      "Ġinclude": 4893,
      "Ġintroduce": 4894,
      "ĠSee": 4895,
      "Ġbrain": 4896,
      "Ġremain": 4897,
      "Ġcrash": 4898,
      "Sh": 4899,
      "Ġpoppy": 4900,
      "Ġtwisted": 4901,
      "Ġcomf": 4902,
      "ĠBounce": 4903,
      "spec": 4904,
      "Ġpur": 4905,
      "elvet": 4906,
      "Ġwags": 4907,
      "Ġwarn": 4908,
      "ges": 4909,
      "Ġtide": 4910,
      "ĠLizzy": 4911,
      "Ġstyle": 4912,
      "specially": 4913,
      "Ġpalm": 4914,
      "Ġsport": 4915,
      "Ġclosely": 4916,
      "Ġprunes": 4917,
      "Ġencourage": 4918,
      "Ġstruggle": 4919,
      "Ġsandcastle": 4920,
      "Ġtug": 4921,
      "Ġespecially": 4922,
      "Ġenter": 4923,
      "Ġscrat": 4924,
      "Ġwreck": 4925,
      "tain": 4926,
      "uesday": 4927,
      "Ġpad": 4928,
      "uct": 4929,
      "Everyone": 4930,
      "Ġurge": 4931,
      "ĠOwl": 4932,
      "Ġracing": 4933,
      "Ġincrease": 4934,
      "ĠLola": 4935,
      "Ġaftern": 4936,
      "yth": 4937,
      "ipping": 4938,
      "Ġchewed": 4939,
      "ĠFox": 4940,
      "Ġafternoon": 4941,
      "cery": 4942,
      "Ġwob": 4943,
      "Ġgaz": 4944,
      "Ġweight": 4945,
      "Ġslap": 4946,
      "Ġgrocery": 4947,
      "ythm": 4948,
      "ring": 4949,
      "Ġcape": 4950,
      "ĠEverything": 4951,
      "emember": 4952,
      "Ġfollows": 4953,
      "Ġyawn": 4954,
      "Ġrecognize": 4955,
      "ĠRuby": 4956,
      "Ġinst": 4957,
      "Ġyucky": 4958,
      "Ġoperation": 4959,
      "Ġshined": 4960,
      "Ġsailing": 4961,
      "Ġfolded": 4962,
      "Ġsir": 4963,
      "bbing": 4964,
      "Ġpulling": 4965,
      "Ġeasily": 4966,
      "Ġjogged": 4967,
      "Ġsolved": 4968,
      "resses": 4969,
      "Woof": 4970,
      "Ġtour": 4971,
      "ĠIs": 4972,
      "ĠLucky": 4973,
      "Ġrang": 4974,
      "Ġblink": 4975,
      "Ġsorts": 4976,
      "ĠGeorge": 4977,
      "Ġentered": 4978,
      "Ġgrowled": 4979,
      "hest": 4980,
      "ĠTuesday": 4981,
      "igi": 4982,
      "queaky": 4983,
      "Ġplanted": 4984,
      "Ġsits": 4985,
      "ĠJohnny": 4986,
      "Ġtreasures": 4987,
      "Once": 4988,
      "Ġwinning": 4989,
      "Ġvel": 4990,
      "Ġteaching": 4991,
      "Ġwarning": 4992,
      "mare": 4993,
      "Ġbur": 4994,
      "Ġmama": 4995,
      "illie": 4996,
      "Ġjazz": 4997,
      "Ġbelow": 4998,
      "Ġsnuggled": 4999,
      "ites": 5000,
      "Ġdigg": 5001,
      "ories": 5002,
      "Ġtwisty": 5003,
      "ĠWho": 5004,
      "Ġwriting": 5005,
      "Ġpinched": 5006,
      "Ġble": 5007,
      "Ġequ": 5008,
      "ĠWally": 5009,
      "ddy": 5010,
      "Ġrhythm": 5011,
      "Ġmemory": 5012,
      "ah": 5013,
      "reat": 5014,
      "Ġlicks": 5015,
      "These": 5016,
      "Ġblueberry": 5017,
      "ĠPaul": 5018,
      "Ġwagging": 5019,
      "Ġdigging": 5020,
      "ari": 5021,
      "Ġbackpack": 5022,
      "Ġsnail": 5023,
      "Ġpaused": 5024,
      "Ġnightmare": 5025,
      "Ġencouraged": 5026,
      "ĠVelvet": 5027,
      "Ġvelvet": 5028,
      "Bl": 5029,
      "gie": 5030,
      "Ġagre": 5031,
      "quake": 5032,
      "Ġzigzag": 5033,
      "Ġgifts": 5034,
      "xygen": 5035,
      "'ve": 5036,
      "With": 5037,
      "oral": 5038,
      "Ġpoison": 5039,
      "Ġburied": 5040,
      "Not": 5041,
      "Ġwaving": 5042,
      "reeze": 5043,
      "Ġsprink": 5044,
      "Ġworms": 5045,
      "Ġearthquake": 5046,
      "hood": 5047,
      "look": 5048,
      "Ġdried": 5049,
      "arnt": 5050,
      "Ġlearnt": 5051,
      "Ġbouncy": 5052,
      "Ġprice": 5053,
      "ĠSnowy": 5054,
      "Ġexercise": 5055,
      "Ġsi": 5056,
      "Ġblood": 5057,
      "Ġhurting": 5058,
      "Ġneighbour": 5059,
      "ĠSpark": 5060,
      "Remy": 5061,
      "Ġnews": 5062,
      "Ġquite": 5063,
      "ĠJoey": 5064,
      "sed": 5065,
      "Ġsimp": 5066,
      "Ġhers": 5067,
      "Ġmanage": 5068,
      "Ġunderground": 5069,
      "Ġcounter": 5070,
      "Ġdeeper": 5071,
      "Ġcollected": 5072,
      "ĠSophie": 5073,
      "izes": 5074,
      "ĠGood": 5075,
      "Ġlemonade": 5076,
      "Ġstrawberries": 5077,
      "Ġpeanuts": 5078,
      "ĠBee": 5079,
      "Ġworth": 5080,
      "Ġbeds": 5081,
      "Ġbalan": 5082,
      "Ġpunished": 5083,
      "Ġbrings": 5084,
      "Ġcatching": 5085,
      "Ġconf": 5086,
      "Ġcaptain": 5087,
      "Ġcollection": 5088,
      "ĠSqueaky": 5089,
      "enry": 5090,
      "Ġimage": 5091,
      "osie": 5092,
      "Ġattention": 5093,
      "Ġdisagree": 5094,
      "Ġbreathe": 5095,
      "ising": 5096,
      "Ġweb": 5097,
      "ĠAlex": 5098,
      "Ġdressed": 5099,
      "Ġlandscape": 5100,
      "ooped": 5101,
      "Ġoh": 5102,
      "Ġzipped": 5103,
      "Ġpaints": 5104,
      "Ġunderstanding": 5105,
      "Ġpuzzles": 5106,
      "ups": 5107,
      "Ġcelebrated": 5108,
      "Ġacorns": 5109,
      "right": 5110,
      "Ġwashing": 5111,
      "orted": 5112,
      "Ġhadn": 5113,
      "aggie": 5114,
      "Ġmuddy": 5115,
      "ucked": 5116,
      "Ġideas": 5117,
      "ĠKing": 5118,
      "avid": 5119,
      "Ġquietly": 5120,
      "Ġseats": 5121,
      "Ġeagerly": 5122,
      "Ġvanished": 5123,
      "Ġweeping": 5124,
      "Ġmemories": 5125,
      "Because": 5126,
      "Ġlung": 5127,
      "Ġprett": 5128,
      "Ġcreatures": 5129,
      "Ġfireworks": 5130,
      "Bella": 5131,
      "Le": 5132,
      "nce": 5133,
      "Ġtong": 5134,
      "rec": 5135,
      "Ġdresses": 5136,
      "Ġworse": 5137,
      "ĠGigi": 5138,
      "Ġinvitation": 5139,
      "Ġkitty": 5140,
      "Ġskills": 5141,
      "unately": 5142,
      "Ġallow": 5143,
      "Ġshopkeeper": 5144,
      "ictory": 5145,
      "Ġfet": 5146,
      "Ġnavy": 5147,
      "Ġcakes": 5148,
      "Ġdifference": 5149,
      "Ġvisited": 5150,
      "Ġeasier": 5151,
      "Surpr": 5152,
      "ippy": 5153,
      "ecture": 5154,
      "Ġshouldn": 5155,
      "Ġshouting": 5156,
      "anges": 5157,
      "Ġsliding": 5158,
      "Ġseeing": 5159,
      "Ġsnapped": 5160,
      "ĠFinn": 5161,
      "Ġjewels": 5162,
      "iers": 5163,
      "mm": 5164,
      "Ġpies": 5165,
      "Ġrelease": 5166,
      "Ġexit": 5167,
      "ipment": 5168,
      "Ġzero": 5169,
      "Ġblankets": 5170,
      "Ġwandered": 5171,
      "looking": 5172,
      "!'": 5173,
      "ccer": 5174,
      "xu": 5175,
      "Ġduring": 5176,
      "Ġreaches": 5177,
      "Ġequipment": 5178,
      "Jenny": 5179,
      "ived": 5180,
      "uxu": 5181,
      "Ġlecture": 5182,
      "ĠBoo": 5183,
      "Ġraised": 5184,
      "Ġtomatoes": 5185,
      "Ġscattered": 5186,
      "ester": 5187,
      "ĠTuna": 5188,
      "Ġsigns": 5189,
      "Ġreceive": 5190,
      "esterday": 5191,
      "do": 5192,
      "ĠToto": 5193,
      "Ġlined": 5194,
      "ĠBaby": 5195,
      "Ġsoccer": 5196,
      "icing": 5197,
      "ĠPinky": 5198,
      "Ġwatered": 5199,
      "Ġclimbs": 5200,
      "Ġkingdom": 5201,
      "Ġbowed": 5202,
      "ĠBluey": 5203,
      "Ġsoldiers": 5204,
      "Ġsip": 5205,
      "Ġoxygen": 5206,
      "Ġfro": 5207,
      "inkle": 5208,
      "Goodbye": 5209,
      "Today": 5210,
      "Ġbaked": 5211,
      "Ġsafari": 5212,
      "Ġluxu": 5213,
      "Ġnowhere": 5214,
      "Ġvanish": 5215,
      "pted": 5216,
      "isses": 5217,
      "Ġcub": 5218,
      "ĠCharlie": 5219,
      "Ġelephants": 5220,
      "Ġtwirled": 5221,
      "ĠMaria": 5222,
      "oves": 5223,
      "sit": 5224,
      "Ġshock": 5225,
      "Ġkisses": 5226,
      "Ġcutting": 5227,
      "Ġcreated": 5228,
      "Ġresp": 5229,
      "Ġbricks": 5230,
      "reci": 5231,
      "Moral": 5232,
      "Ġhits": 5233,
      "Ġattached": 5234,
      "ĠGod": 5235,
      "Ġtoes": 5236,
      "ĠSu": 5237,
      "ĠEventually": 5238,
      "Ġappreci": 5239,
      "Ġpotatoes": 5240,
      "Ġcartoons": 5241,
      "Ġbleed": 5242,
      "apa": 5243,
      "Ġvictory": 5244,
      "ĠRosie": 5245,
      "Bobby": 5246,
      "Ġurged": 5247,
      "Fred": 5248,
      "Ġgloves": 5249,
      "Ġwelcomed": 5250,
      "Ġaccepted": 5251,
      "ĠMay": 5252,
      "Ġruin": 5253,
      "Ġscreams": 5254,
      "Ġjogging": 5255,
      "Ġexperience": 5256,
      "sters": 5257,
      "Ġseason": 5258,
      "Ġflap": 5259,
      "Ġskipping": 5260,
      "Ġforgotten": 5261,
      "Ġacted": 5262,
      "Ġfallen": 5263,
      "fortunately": 5264,
      "Ġstraight": 5265,
      "omeday": 5266,
      "Surprise": 5267,
      "Ġbones": 5268,
      "Ġpitch": 5269,
      "vest": 5270,
      "ents": 5271,
      "Ġwinner": 5272,
      "ĠDanny": 5273,
      "Ġpupil": 5274,
      "ĠSmith": 5275,
      "ĠTony": 5276,
      "Ġstitch": 5277,
      "ction": 5278,
      "ĠRock": 5279,
      "Ġfiref": 5280,
      "Ġgazed": 5281,
      "Ġsince": 5282,
      "Ġsizes": 5283,
      "Ġplays": 5284,
      "Ġshot": 5285,
      "ĠIts": 5286,
      "Ġisn": 5287,
      "Ġcras": 5288,
      "Ġfields": 5289,
      "Ġspoons": 5290,
      "Ġtongue": 5291,
      "Ġsomeday": 5292,
      "aded": 5293,
      "Ġfash": 5294,
      "Ġremained": 5295,
      "Ġours": 5296,
      "Ġguessed": 5297,
      "Ġmeow": 5298,
      "Ġbye": 5299,
      "Ġprinted": 5300,
      "Yum": 5301,
      "Ġknown": 5302,
      "ĠEach": 5303,
      "Ġsorting": 5304,
      "Ġappear": 5305,
      "Ġpets": 5306,
      "ĠZara": 5307,
      "Ġselling": 5308,
      "Ġfashion": 5309,
      "ety": 5310,
      "Ġluxury": 5311,
      "Ġslice": 5312,
      "ips": 5313,
      "Ġkicking": 5314,
      "Ġgolden": 5315,
      "Ġinstr": 5316,
      "Blue": 5317,
      "ĠQu": 5318,
      "Ġtore": 5319,
      "ĠSandy": 5320,
      "ĠJames": 5321,
      "Ġbreaking": 5322,
      "Ġprinter": 5323,
      "Ġprints": 5324,
      "Ġmarching": 5325,
      "Ġdecorations": 5326,
      "Ġdestroyed": 5327,
      "ded": 5328,
      "kins": 5329,
      "Ġmice": 5330,
      "Ġrested": 5331,
      "Ġscolded": 5332,
      "Jen": 5333,
      "rin": 5334,
      "Ġwaist": 5335,
      "Ġdaisy": 5336,
      "Ġlaid": 5337,
      "ssible": 5338,
      "Ġmixing": 5339,
      "Ġdrinks": 5340,
      "Ġpra": 5341,
      "ĠDavid": 5342,
      "Ġtrapped": 5343,
      "ĠBefore": 5344,
      "Ġmeasured": 5345,
      "ĠMillie": 5346,
      "Ġwatches": 5347,
      "Ġofficer": 5348,
      "Ġunlocked": 5349,
      "Ġreceived": 5350,
      "Ġsimple": 5351,
      "eath": 5352,
      "ĠThese": 5353,
      "Ġnone": 5354,
      "chie": 5355,
      "Ġteasing": 5356,
      "Ġfloating": 5357,
      "Ġbites": 5358,
      "Ġmarried": 5359,
      "Ġringing": 5360,
      "Ġmentioned": 5361,
      "cus": 5362,
      "Ġpears": 5363,
      "Ġgrin": 5364,
      "Ġpetals": 5365,
      "Ġwhistling": 5366,
      "Ġdisagreed": 5367,
      "Ġfetch": 5368,
      "Ġfed": 5369,
      "Ġdared": 5370,
      "ĠHappy": 5371,
      "ĠBo": 5372,
      "Ġshed": 5373,
      "Ġvoices": 5374,
      "Ġpillows": 5375,
      "ding": 5376,
      "ishing": 5377,
      "ĠHop": 5378,
      "ship": 5379,
      "Ġmouths": 5380,
      "Ġmuscles": 5381,
      "Ġchewing": 5382,
      "Ġinvest": 5383,
      "ores": 5384,
      "Ġbrus": 5385,
      "Ġhurried": 5386,
      "Ġmelted": 5387,
      "Ġmuffins": 5388,
      "Ġtwigs": 5389,
      "medi": 5390,
      "va": 5391,
      "Ġmister": 5392,
      "Ġfamil": 5393,
      "Ġdrinking": 5394,
      "mediately": 5395,
      "ls": 5396,
      "rr": 5397,
      "ored": 5398,
      "Ġeast": 5399,
      "Ġhighest": 5400,
      "Ġquack": 5401,
      "ĠChicky": 5402,
      "Ġinvestig": 5403,
      "Ġtonight": 5404,
      "ishes": 5405,
      "ĠSlow": 5406,
      "aped": 5407,
      "Ġsurround": 5408,
      "ĠFollow": 5409,
      "Ġbreeze": 5410,
      "Ġrul": 5411,
      "Ġflat": 5412,
      "aker": 5413,
      "Ġtrave": 5414,
      "Ġimportance": 5415,
      "Ġperfectly": 5416,
      "ĠFroggy": 5417,
      "Ġstudied": 5418,
      "Ha": 5419,
      "ĠTilly": 5420,
      "Ġkeys": 5421,
      "boo": 5422,
      "Ġnapping": 5423,
      "Ġspit": 5424,
      "Ġalright": 5425,
      "Ġsorted": 5426,
      "Ġyouth": 5427,
      "une": 5428,
      "Ġgirls": 5429,
      "izing": 5430,
      "Ġsetting": 5431,
      "Ġfishing": 5432,
      "Ġmeasuring": 5433,
      "aved": 5434,
      "akes": 5435,
      "Ġpeaches": 5436,
      "ission": 5437,
      "Ġmatched": 5438,
      "osed": 5439,
      "Ġrelaxed": 5440,
      "achel": 5441,
      "Really": 5442,
      "Ġlips": 5443,
      "Ġinvestigate": 5444,
      "Bu": 5445,
      "Ġbang": 5446,
      "ĠHenry": 5447,
      "ogo": 5448,
      "plash": 5449,
      "Ġnails": 5450,
      "Ġpermission": 5451,
      "Ġwiggle": 5452,
      "Ġrevealed": 5453,
      "ther": 5454,
      "Ġplaytime": 5455,
      "Ġchores": 5456,
      "Ġstrings": 5457,
      "Ġmotion": 5458,
      "Ġscratched": 5459,
      "Tr": 5460,
      "irts": 5461,
      "ĠPip": 5462,
      "ĠPapa": 5463,
      "Ġstuffed": 5464,
      "Ġkneeled": 5465,
      "Ġwink": 5466,
      "ĠLater": 5467,
      "Ġlick": 5468,
      "!\",": 5469,
      "Ġfiremen": 5470,
      "Ġsecrets": 5471,
      "Ġbringing": 5472,
      "Ġstealing": 5473,
      "Ġpatterns": 5474,
      "ĠHope": 5475,
      "ĠLiz": 5476,
      "ĠMo": 5477,
      "ĠAm": 5478,
      "Ġpoking": 5479,
      "Ġappro": 5480,
      "Ġworks": 5481,
      "Ġsafety": 5482,
      ".'": 5483,
      "Cat": 5484,
      "eep": 5485,
      "oved": 5486,
      "Ġlines": 5487,
      "Ġinch": 5488,
      "Ġago": 5489,
      "Ġlets": 5490,
      "Ġcontest": 5491,
      "Ġtrips": 5492,
      "ĠSomeone": 5493,
      "Ok": 5494,
      "ino": 5495,
      "Ġhesit": 5496,
      "ids": 5497,
      "Ġhated": 5498,
      "Ġwest": 5499,
      "enty": 5500,
      "choo": 5501,
      "Ġdoggy": 5502,
      "Ġstrang": 5503,
      "Ġresult": 5504,
      "Ġburning": 5505,
      "Ġbegged": 5506,
      "\",": 5507,
      "Would": 5508,
      "ides": 5509,
      "Ġthrill": 5510,
      "Ġesc": 5511,
      "Ġcolours": 5512,
      "sing": 5513,
      "Ġtucked": 5514,
      "hello": 5515,
      "Ġsix": 5516,
      "Ġbeamed": 5517,
      "Ġtremb": 5518,
      "Ġstro": 5519,
      "ĠGreen": 5520,
      "Ġemer": 5521,
      "Ġadmir": 5522,
      "Ġsilence": 5523,
      "anna": 5524,
      "ĠBoth": 5525,
      "antly": 5526,
      "Ġmarks": 5527,
      "Ġruler": 5528,
      "please": 5529,
      "kelly": 5530,
      "Ġoranges": 5531,
      "Ġcrunch": 5532,
      "Ġmelting": 5533,
      "Ġtrembling": 5534,
      "walk": 5535,
      "ĠMaggie": 5536,
      "Ġslapped": 5537,
      "Ġimmediately": 5538,
      "Ġresting": 5539,
      "Ġamazement": 5540,
      "Ġmoments": 5541,
      "Ġguy": 5542,
      "Ġpiles": 5543,
      "Ġsparkling": 5544,
      "Ġordered": 5545,
      "Ġsneak": 5546,
      "nie": 5547,
      "Ġbab": 5548,
      "Ġtheirs": 5549,
      "Ġarea": 5550,
      "Ġcrawling": 5551,
      "Ġsupposed": 5552,
      "...": 5553,
      "Ġpraised": 5554,
      "Happy": 5555,
      "usty": 5556,
      "Ġmonsters": 5557,
      "Ġsettled": 5558,
      "Ġstrangers": 5559,
      "zing": 5560,
      "ĠDr": 5561,
      "ĠChe": 5562,
      "Momo": 5563,
      "Ġkeeps": 5564,
      "Ġwaits": 5565,
      "Ġheaded": 5566,
      "Ġlands": 5567,
      "Ġsidewalk": 5568,
      "ĠNot": 5569,
      "ĠFrog": 5570,
      "ĠSuzy": 5571,
      "Ġbabies": 5572,
      "hind": 5573,
      "utter": 5574,
      "aws": 5575,
      "Boo": 5576,
      "Mandy": 5577,
      "Ġwiz": 5578,
      "Ġknelt": 5579,
      "Ġripped": 5580,
      "Ġbloomed": 5581,
      "Ġherbs": 5582,
      "bug": 5583,
      "rs": 5584,
      "idges": 5585,
      "ĠHo": 5586,
      "Ġitem": 5587,
      "ĠBug": 5588,
      "Ġsore": 5589,
      "Ġturning": 5590,
      "Ġcollecting": 5591,
      "irring": 5592,
      "Ġshadows": 5593,
      "Ġstripes": 5594,
      "Ġstruggled": 5595,
      "ĠSkelly": 5596,
      "Ġwhatever": 5597,
      "Ġpearl": 5598,
      "Ġspiders": 5599,
      "ĠSky": 5600,
      "Ġachie": 5601,
      "Ġthreat": 5602,
      "allen": 5603,
      "ĠAn": 5604,
      "Ġbridges": 5605,
      "ĠFirst": 5606,
      "embers": 5607,
      "Ġremembers": 5608,
      "Ġanswers": 5609,
      "Ġmachines": 5610,
      "Ġserved": 5611,
      "Ġtickets": 5612,
      "Leo": 5613,
      "Ġobe": 5614,
      "ĠMilly": 5615,
      "Ġchallen": 5616,
      "Ġgrant": 5617,
      "Ġbehaved": 5618,
      "Ġshopping": 5619,
      "osity": 5620,
      "Ġdinosaurs": 5621,
      "Ġmittens": 5622,
      "ĠUncle": 5623,
      "ĠRocky": 5624,
      "ues": 5625,
      "Ġplayroom": 5626,
      "ĠAb": 5627,
      "Ġpride": 5628,
      "ĠKate": 5629,
      "ĠGogo": 5630,
      "Mmm": 5631,
      "Ġdire": 5632,
      "Ġdads": 5633,
      "Ġwrites": 5634,
      "Ġwonders": 5635,
      "Ġzooming": 5636,
      "Ġpresents": 5637,
      "Meow": 5638,
      "act": 5639,
      "ira": 5640,
      "Ġstirring": 5641,
      "ĠMat": 5642,
      "umes": 5643,
      "ĠWigg": 5644,
      "ĠOut": 5645,
      "Ġcomple": 5646,
      "Ġspaceship": 5647,
      "Ġsneaky": 5648,
      "Somet": 5649,
      "xture": 5650,
      "Ġnicer": 5651,
      "Ġgust": 5652,
      "ĠSqu": 5653,
      "Ġtexture": 5654,
      "Ġwooden": 5655,
      "Ġchirped": 5656,
      "Ġthrilled": 5657,
      "Ġeight": 5658,
      "Ġprec": 5659,
      "undred": 5660,
      "Ġshooting": 5661,
      "Ġdisturbed": 5662,
      "Ġcurled": 5663,
      "Ġsnowballs": 5664,
      "Ġwizard": 5665,
      "Ġhundred": 5666,
      "Ġvet": 5667,
      "ĠRachel": 5668,
      "Ġcones": 5669,
      "Ġribbons": 5670,
      "Ġbuzzing": 5671,
      "Ġhonk": 5672,
      "Ġsiren": 5673,
      "Ġbrushes": 5674,
      "Un": 5675,
      "Yummy": 5676,
      "Ġtwin": 5677,
      "Ġtastes": 5678,
      "unnies": 5679,
      "Ġcostumes": 5680,
      "Ġsprinkles": 5681,
      "Ġescaped": 5682,
      "Ġobey": 5683,
      "Ro": 5684,
      "Ġawe": 5685,
      "ided": 5686,
      "Ġhappiest": 5687,
      "Ġweighed": 5688,
      "Ġsoaked": 5689,
      "ĠAunt": 5690,
      "indy": 5691,
      "Ġanytime": 5692,
      "Ġopin": 5693,
      "Ġpots": 5694,
      "ĠSte": 5695,
      "ĠStitch": 5696,
      "Ġleader": 5697,
      "'.": 5698,
      "ales": 5699,
      "Ġbunnies": 5700,
      "Ġbeside": 5701,
      "Ġslim": 5702,
      "Ġsteep": 5703,
      "ĠStar": 5704,
      "Ġpedals": 5705,
      "Ġbleeding": 5706,
      "Bird": 5707,
      "omas": 5708,
      "Ġshirts": 5709,
      "Ġflav": 5710,
      "Ġchef": 5711,
      "Ġpolished": 5712,
      "Ġfamilies": 5713,
      "Ella": 5714,
      "Ġhi": 5715,
      "Ġgained": 5716,
      "Ġwanting": 5717,
      "Ġboom": 5718,
      "ĠSomething": 5719,
      "Ġheroes": 5720,
      "Ġdecorated": 5721,
      "Ġtickle": 5722,
      "Eventually": 5723,
      "Ollie": 5724,
      "loe": 5725,
      "Ġfut": 5726,
      "Ġdot": 5727,
      "ays": 5728,
      "Ġfrost": 5729,
      "Ġexpected": 5730,
      "ĠDare": 5731,
      "Ġpebbles": 5732,
      "Ġbroom": 5733,
      "Ġspending": 5734,
      "ĠPippa": 5735,
      "Ġcuddled": 5736,
      "Ġcomforted": 5737,
      "Ġcrunchy": 5738,
      "Ġslimy": 5739,
      "Ġfuture": 5740,
      "Ah": 5741,
      "First": 5742,
      "Remember": 5743,
      "ĠLike": 5744,
      "Ġrele": 5745,
      "ĠJul": 5746,
      "Ġgrey": 5747,
      "Ġpeel": 5748,
      "joyed": 5749,
      "Ġowned": 5750,
      "Ġtouching": 5751,
      "Ġradishes": 5752,
      "ĠAlways": 5753,
      "Ġprepared": 5754,
      "Ġroots": 5755,
      "Ġemergen": 5756,
      "Ġprecious": 5757,
      "Have": 5758,
      "anny": 5759,
      "ĠDid": 5760,
      "Ġoverjoyed": 5761,
      "Ġbravely": 5762,
      "Ġwarmth": 5763,
      "Ġladybug": 5764,
      "Ġroads": 5765,
      "Ġdecides": 5766,
      "Ġeats": 5767,
      "Ġcontinue": 5768,
      "Ġdragons": 5769,
      "ĠSpring": 5770,
      "Emily": 5771,
      "ĠClara": 5772,
      "ud": 5773,
      "Ġsides": 5774,
      "Ġbeat": 5775,
      "Ġstare": 5776,
      "Ġstruck": 5777,
      "Ġclearing": 5778,
      "Ġfoods": 5779,
      "Ġcrabs": 5780,
      "Andy": 5781,
      "ĠBrownie": 5782,
      "Ġrides": 5783,
      "Ġappreciate": 5784,
      "Ġcrashed": 5785,
      "Ġadmiring": 5786,
      "ĠSplash": 5787,
      "Ġloving": 5788,
      "ĠDino": 5789,
      "ĠCra": 5790,
      "Ġtricked": 5791,
      "Ġbottles": 5792,
      "Ġsisters": 5793,
      "Ġspraying": 5794,
      "Ġzookeeper": 5795,
      "Ġneighborhood": 5796,
      "Ġminerals": 5797,
      "Ġsucceeded": 5798,
      "Ġbalancing": 5799,
      "fied": 5800,
      "Ġlily": 5801,
      "isten": 5802,
      "Ġdiscovery": 5803,
      "Ġclaps": 5804,
      "ĠPepper": 5805,
      "Ġargued": 5806,
      "Ġrecognized": 5807,
      "ĠBouncy": 5808,
      "riends": 5809,
      "ĠSlowly": 5810,
      "Ġapproached": 5811,
      "Jake": 5812,
      "Or": 5813,
      "lier": 5814,
      "use": 5815,
      "Ġsings": 5816,
      "Ġbelly": 5817,
      "urry": 5818,
      "ĠJe": 5819,
      "Ġyelling": 5820,
      "Ġrubbing": 5821,
      "Ġbuildings": 5822,
      "Ġorganizing": 5823,
      "ĠBeep": 5824,
      "Ġstudying": 5825,
      "Ġcompleted": 5826,
      "Ġyesterday": 5827,
      "Ġrings": 5828,
      "ĠBree": 5829,
      "Ġsoared": 5830,
      "ĠWater": 5831,
      "Ġtwink": 5832,
      "Ġstaying": 5833,
      "Ġsparkle": 5834,
      "Ġplanets": 5835,
      "Ġpoems": 5836,
      "Ġtoss": 5837,
      "ppers": 5838,
      "Ġloose": 5839,
      "Ġrocked": 5840,
      "Ġkindly": 5841,
      "ĠRabbit": 5842,
      "Ġpupp": 5843,
      "Ġnaps": 5844,
      "Ġglowed": 5845,
      "Ġacting": 5846,
      "Ġsafer": 5847,
      "ĠStop": 5848,
      "ĠFrank": 5849,
      "Ġtasks": 5850,
      "Ġsighs": 5851,
      "Ġpause": 5852,
      "igail": 5853,
      "iggy": 5854,
      "Ġscooped": 5855,
      "Ġworker": 5856,
      "Ġrealize": 5857,
      "Ġcuts": 5858,
      "Ġearlier": 5859,
      "Ġpockets": 5860,
      "Sometimes": 5861,
      "Ġfrosting": 5862,
      "Ġreleased": 5863,
      "Tw": 5864,
      "Ġsled": 5865,
      "Ġglitter": 5866,
      "Ġswims": 5867,
      "Ġseems": 5868,
      "Ġfolding": 5869,
      "Ġemergency": 5870,
      "oh": 5871,
      "zen": 5872,
      "ities": 5873,
      "ĠJan": 5874,
      "Ġourselves": 5875,
      "Ġsneaked": 5876,
      "Ġagreement": 5877,
      "Cl": 5878,
      "oming": 5879,
      "Ġhissed": 5880,
      "Ġeff": 5881,
      "Ġscaring": 5882,
      "Ġwherever": 5883,
      "Ġrecorded": 5884,
      "ĠRover": 5885,
      "Ġrespons": 5886,
      "hee": 5887,
      "ĠMe": 5888,
      "Ġcatches": 5889,
      "Ġnoon": 5890,
      "Ġprop": 5891,
      "Ġdraws": 5892,
      "Ġpolishing": 5893,
      "Ġpastries": 5894,
      "Ġflags": 5895,
      "Ġapologize": 5896,
      "Ġtim": 5897,
      "Ġgiraff": 5898,
      "Ġgoodnight": 5899,
      "bbie": 5900,
      "oys": 5901,
      "ĠBehind": 5902,
      "Ġneighbors": 5903,
      "Ġchases": 5904,
      "Ġrefres": 5905,
      "Ġapologized": 5906,
      "Ġgrinned": 5907,
      "ĠWiggly": 5908,
      "Ġgiraffes": 5909,
      "Sp": 5910,
      "Ġgaze": 5911,
      "Ġrocking": 5912,
      "Ġseesaw": 5913,
      "Ġloaded": 5914,
      "Ġfrozen": 5915,
      "Ġsurrounded": 5916,
      "Peter": 5917,
      "mother": 5918,
      "ĠX": 5919,
      "Ġbeard": 5920,
      "Ġpossible": 5921,
      "Whiskers": 5922,
      "Ġopening": 5923,
      "Ġbedtime": 5924,
      "Ġprotected": 5925,
      "Ġpenguins": 5926,
      "Ġreply": 5927,
      "ĠHoot": 5928,
      "Ex": 5929,
      "Rex": 5930,
      "Ġboo": 5931,
      "Ġsting": 5932,
      "ĠWatch": 5933,
      "ĠPaws": 5934,
      "Ġcompany": 5935,
      "Ġactions": 5936,
      "zes": 5937,
      "amie": 5938,
      "allow": 5939,
      "ĠBeth": 5940,
      "umble": 5941,
      "Ġhomework": 5942,
      "Ġunited": 5943,
      "Ġteaches": 5944,
      "Ġcircus": 5945,
      "ĠBeing": 5946,
      "Ġdemanded": 5947,
      "Ġcomfy": 5948,
      "Ġteased": 5949,
      "ĠPut": 5950,
      "Ġremoved": 5951,
      "ĠWhist": 5952,
      "Ġparties": 5953,
      "Ġweeks": 5954,
      "Ġsausages": 5955,
      "Ġrepeated": 5956,
      "Ġpadd": 5957,
      "Ġopinion": 5958,
      "Ġeffort": 5959,
      "Ġtugged": 5960,
      "Ġwoof": 5961,
      "Ġcough": 5962,
      "Ġbrushed": 5963,
      "Ġpeppers": 5964,
      "ĠJosh": 5965,
      "Ġsplashes": 5966,
      "Ġdiving": 5967,
      "Ġforks": 5968,
      "Ġstruggling": 5969,
      "Ġwiggled": 5970,
      "Ġapplauded": 5971,
      "Ġprettiest": 5972,
      "Ġinstruct": 5973,
      "During": 5974,
      "ib": 5975,
      "ler": 5976,
      "uke": 5977,
      "Ġbare": 5978,
      "Ġsoaring": 5979,
      "Ġhelpers": 5980,
      "Ġsmallest": 5981,
      "Ġsparkles": 5982,
      "ĠLeave": 5983,
      "Ġactually": 5984,
      "nies": 5985,
      "Ġwid": 5986,
      "ena": 5987,
      "ora": 5988,
      "ashed": 5989,
      "Ġdrives": 5990,
      "Ġpaintings": 5991,
      "ĠBlink": 5992,
      "Ġpouring": 5993,
      "ĠBirdie": 5994,
      "Ġhelmets": 5995,
      "ĠSquirrel": 5996,
      "Silly": 5997,
      "ho": 5998,
      "ien": 5999,
      "Ġfara": 6000,
      "ĠLou": 6001,
      "Ġhugging": 6002,
      "Ġcuriosity": 6003,
      "Ġdarker": 6004,
      "Ġsitu": 6005,
      "Ġdragged": 6006,
      "Ġrainbows": 6007,
      "Ġhorns": 6008,
      "Ġagrees": 6009,
      "Ġfaraway": 6010,
      "Ġwins": 6011,
      "Ġlimes": 6012,
      "Ġma": 6013,
      "ĠAva": 6014,
      "ĠJu": 6015,
      "Ġlearns": 6016,
      "ĠRemember": 6017,
      "Ġuses": 6018,
      "Ġtallest": 6019,
      "Ġsteady": 6020,
      "Ġpetted": 6021,
      "Ġarrive": 6022,
      "Ġscru": 6023,
      "Ġstretching": 6024,
      "Ġpurred": 6025,
      "Ġflutter": 6026,
      "Ġhardly": 6027,
      "Ġsmiley": 6028,
      "Ġwondering": 6029,
      "Ġpennies": 6030,
      "Ġvisiting": 6031,
      "Ġsnakes": 6032,
      "Ġshrug": 6033,
      "Ġpacking": 6034,
      "Ġquarreling": 6035,
      "Ducky": 6036,
      "jam": 6037,
      "ĠBark": 6038,
      "Ġfasc": 6039,
      "Ġgotten": 6040,
      "Ġrule": 6041,
      "Ġforgi": 6042,
      "Ġrolls": 6043,
      "Ġvillag": 6044,
      "Ġpanc": 6045,
      "Ġmatching": 6046,
      "guing": 6047,
      "Ġmovies": 6048,
      "Ġshivered": 6049,
      "Poppy": 6050,
      "Ġwound": 6051,
      "ana": 6052,
      "Ġdownstairs": 6053,
      "Ġsunlight": 6054,
      "uckily": 6055,
      "Ġtalent": 6056,
      "Ġcracked": 6057,
      "Ġarguing": 6058,
      "Ġcontain": 6059,
      "ĠZigzag": 6060,
      "Ġphot": 6061,
      "Ġactiv": 6062,
      "ĠTwinkle": 6063,
      "Ġdusty": 6064,
      "Ġknights": 6065,
      "Ġtwirl": 6066,
      "Ġawake": 6067,
      "Ġvillagers": 6068,
      "Miss": 6069,
      "Que": 6070,
      "coon": 6071,
      "ining": 6072,
      "Ġdipped": 6073,
      "Ġhen": 6074,
      "Ġthird": 6075,
      "Ġroaring": 6076,
      "Ġwhose": 6077,
      "ĠPup": 6078,
      "ĠGr": 6079,
      "Ġsweeties": 6080,
      "Sammy": 6081,
      "ĠZero": 6082,
      "Ġrefuse": 6083,
      "Ġpowers": 6084,
      "Ġinsist": 6085,
      "Ġcuddle": 6086,
      "Ġprettier": 6087,
      "Fine": 6088,
      "atie": 6089,
      "ĠBecause": 6090,
      "ĠAlly": 6091,
      "ica": 6092,
      "Ġoutdo": 6093,
      "usan": 6094,
      "ĠThomas": 6095,
      "Ġpatience": 6096,
      "Ġprotecting": 6097,
      "Ġinstructions": 6098,
      "Queen": 6099,
      "Fo": 6100,
      "Tiny": 6101,
      "Uh": 6102,
      "Watch": 6103,
      "ibb": 6104,
      "Ġ1": 6105,
      "ĠSw": 6106,
      "ĠBy": 6107,
      "Ġcans": 6108,
      "Ġlap": 6109,
      "Ġpeered": 6110,
      "anging": 6111,
      "Ġgathering": 6112,
      "Ġprayer": 6113,
      "Grandpa": 6114,
      "Ġwobbled": 6115,
      "Ġtraveled": 6116,
      "oke": 6117,
      "uly": 6118,
      "esome": 6119,
      "Ġmane": 6120,
      "Ġexact": 6121,
      "Ġpeas": 6122,
      "Ġslam": 6123,
      "Ġsticking": 6124,
      "Ġhops": 6125,
      "Ġcrumb": 6126,
      "Ġmisses": 6127,
      "Ġgems": 6128,
      "Ġitems": 6129,
      "Ġfascin": 6130,
      "Ġcaut": 6131,
      "Ġtruly": 6132,
      "ĠRay": 6133,
      "Ġperched": 6134,
      "Ġreaching": 6135,
      "Ġbowls": 6136,
      "Ġentire": 6137,
      "Ġvehicles": 6138,
      "Ġawesome": 6139,
      "Ġbegin": 6140,
      "Ġfirefight": 6141,
      "True": 6142,
      "Ġchallenge": 6143,
      "ĠJeff": 6144,
      "Ġresponsible": 6145,
      "Fr": 6146,
      "ĠAbby": 6147,
      "Ġseas": 6148,
      "Ġsadness": 6149,
      "Ġfault": 6150,
      "Ġfears": 6151,
      "Ġrip": 6152,
      "Ġbuckets": 6153,
      "ĠHowever": 6154,
      "Ġmountains": 6155,
      "Ġcopy": 6156,
      "ĠRobby": 6157,
      "Ġpastels": 6158,
      "Ġoutdoors": 6159,
      "amb": 6160,
      "Ġstaring": 6161,
      "Ġusual": 6162,
      "Ġkeeper": 6163,
      "Ġfairies": 6164,
      "Ġpatted": 6165,
      "Ġblows": 6166,
      "ĠSkip": 6167,
      "Ġbarely": 6168,
      "Susie": 6169,
      "neath": 6170,
      "Ġwasted": 6171,
      "ords": 6172,
      "ĠLove": 6173,
      "Ġlied": 6174,
      "Ġweren": 6175,
      "ĠFish": 6176,
      "Ġvent": 6177,
      "Ġtails": 6178,
      "Ġbars": 6179,
      "Ġpointy": 6180,
      "Ġkicks": 6181,
      "Ġonions": 6182,
      "Ġloading": 6183,
      "Ġintroduc": 6184,
      "ĠBuggy": 6185,
      "Luna": 6186,
      "bl": 6187,
      "seek": 6188,
      "ĠKeep": 6189,
      "ĠGina": 6190,
      "Ġpretends": 6191,
      "Ġscreaming": 6192,
      "Ġpracticing": 6193,
      "Ġdrums": 6194,
      "Ġadding": 6195,
      "Ġcomplained": 6196,
      "Ġcobwebs": 6197,
      "Grace": 6198,
      "Ġgrandmother": 6199,
      "Mar": 6200,
      "Toby": 6201,
      "lay": 6202,
      "you": 6203,
      "isdom": 6204,
      "Ġbead": 6205,
      "Ġann": 6206,
      "Ġscoop": 6207,
      "iggie": 6208,
      "Ġpumpkins": 6209,
      "Ġteamwork": 6210,
      "Ġreminder": 6211,
      "Ġsweat": 6212,
      "Ġornaments": 6213,
      "lowers": 6214,
      "Chirpy": 6215,
      "Ġcurly": 6216,
      "Ġrequested": 6217,
      "ĠChew": 6218,
      "Ġphotos": 6219,
      "Achoo": 6220,
      "Ġdam": 6221,
      "ilo": 6222,
      "Benny": 6223,
      "Ġcloses": 6224,
      "ĠOur": 6225,
      "Stay": 6226,
      "Ġeagle": 6227,
      "Ġcandies": 6228,
      "Ġsneezing": 6229,
      "Ġexamined": 6230,
      "ĠTwo": 6231,
      "Ġsights": 6232,
      "Ġneighbourhood": 6233,
      "Ġscrubbed": 6234,
      "Ġbunch": 6235,
      "Ġcause": 6236,
      "ĠHippy": 6237,
      "Ġonwards": 6238,
      "ĠBye": 6239,
      "ĠMix": 6240,
      "Ġgoals": 6241,
      "aster": 6242,
      "ĠPrin": 6243,
      "Ġaccom": 6244,
      "ĠChloe": 6245,
      "ĠJenna": 6246,
      "ĠCatty": 6247,
      "Ġincluded": 6248,
      "jamas": 6249,
      "Ġaccompl": 6250,
      "Dog": 6251,
      "Hold": 6252,
      "ha": 6253,
      "Ġbank": 6254,
      "Ġplenty": 6255,
      "Thanks": 6256,
      "ĠPam": 6257,
      "Ġjoked": 6258,
      "Ġtables": 6259,
      "avi": 6260,
      "Ġwinked": 6261,
      "Ġdeser": 6262,
      "Ġpans": 6263,
      "Ġrefle": 6264,
      "Ġcurtains": 6265,
      "Ġguys": 6266,
      "ĠSteve": 6267,
      "wh": 6268,
      "Ġicing": 6269,
      "ĠWelcome": 6270,
      "ĠJilly": 6271,
      "Ġeveryday": 6272,
      "Ġgran": 6273,
      "Ġglasses": 6274,
      "Ġstole": 6275,
      "Ġpajamas": 6276,
      "Ġwrist": 6277,
      "Ġexplorers": 6278,
      "Ġairpl": 6279,
      "Ġreluct": 6280,
      "ĠNina": 6281,
      "Ġrubs": 6282,
      "Ġdolphins": 6283,
      "Ġvideos": 6284,
      "Ġchirping": 6285,
      "ĠAbigail": 6286,
      "Rob": 6287,
      "bird": 6288,
      "gers": 6289,
      "sses": 6290,
      "Ġdied": 6291,
      "Ġcent": 6292,
      "irm": 6293,
      "ĠMira": 6294,
      "umm": 6295,
      "ĠJess": 6296,
      "ĠFriends": 6297,
      "Ġchuck": 6298,
      "Ġdecision": 6299,
      "ĠEveryday": 6300,
      "Ġreplaced": 6301,
      "Ġcreation": 6302,
      "Ġspeaking": 6303,
      "Ġtowels": 6304,
      "Ġlibrarian": 6305,
      "Ġcomplaining": 6306,
      "Ġtimer": 6307,
      "--": 6308,
      "Bad": 6309,
      "Ew": 6310,
      "Time": 6311,
      "Tina": 6312,
      "ĠQueen": 6313,
      "Ġwed": 6314,
      "Ġpout": 6315,
      "ĠWant": 6316,
      "ĠWink": 6317,
      "Ġunderneath": 6318,
      "ilda": 6319,
      "Ġparked": 6320,
      "Ġwritten": 6321,
      "Ġdesert": 6322,
      "Ġcheering": 6323,
      "Ġlogs": 6324,
      "Ġwandering": 6325,
      "Ġdelivered": 6326,
      "Ġproject": 6327,
      "Ġdar": 6328,
      "ĠBiggie": 6329,
      "ĠMoon": 6330,
      "Ġyourselves": 6331,
      "Ġreads": 6332,
      "Ġsnowmen": 6333,
      "Ġscarves": 6334,
      "Ġsupplies": 6335,
      "Ġguns": 6336,
      "Ġdestination": 6337,
      "Ġrescued": 6338,
      "Ġburst": 6339,
      "ĠQuack": 6340,
      "Ġsituation": 6341,
      "Ġexactly": 6342,
      "Ġgranted": 6343,
      "dies": 6344,
      "fit": 6345,
      "njoy": 6346,
      "Ġhitting": 6347,
      "onny": 6348,
      "ĠSure": 6349,
      "indr": 6350,
      "Ġoutfit": 6351,
      "Ġchanging": 6352,
      "ĠDizzy": 6353,
      "Ġpromises": 6354,
      "Ġfilling": 6355,
      "Ġmission": 6356,
      "Ġstartled": 6357,
      "Ġwishing": 6358,
      "Ġpigeons": 6359,
      "Ġsurface": 6360,
      "...\"": 6361,
      "Ġbalanced": 6362,
      "annah": 6363,
      "Ġlamb": 6364,
      "ern": 6365,
      "ĠSusan": 6366,
      "Ġshelves": 6367,
      "Ġbecoming": 6368,
      "ĠJones": 6369,
      "Ġchips": 6370,
      "Ġbuses": 6371,
      "Ġdollhouse": 6372,
      "Ġraindr": 6373,
      "Ġsqueal": 6374,
      "Ġsquares": 6375,
      "Ġruining": 6376,
      "Unfortunately": 6377,
      "James": 6378,
      "Our": 6379,
      "Ru": 6380,
      "Ġmes": 6381,
      "Ġneither": 6382,
      "?\",": 6383,
      "ĠWoof": 6384,
      "Ġsatis": 6385,
      "Ġyells": 6386,
      "Ġcrept": 6387,
      "Ġinviting": 6388,
      "Ġgiggling": 6389,
      "Ġpoliceman": 6390,
      "Ġpencils": 6391,
      "Ġwires": 6392,
      "Some": 6393,
      "go": 6394,
      "son": 6395,
      "Ġda": 6396,
      "arter": 6397,
      "ĠLarry": 6398,
      "ados": 6399,
      "ĠMin": 6400,
      "Ġsmarter": 6401,
      "agull": 6402,
      "Ġswooped": 6403,
      "Ġchat": 6404,
      "Ġvowed": 6405,
      "ĠSnap": 6406,
      "Ġfroze": 6407,
      "Ġventured": 6408,
      "Ġreluctantly": 6409,
      "Doggy": 6410,
      "Oops": 6411,
      "Ġast": 6412,
      "Ġfirm": 6413,
      "ingo": 6414,
      "ĠLena": 6415,
      "Ġkings": 6416,
      "ĠWisdom": 6417,
      "Ġnoses": 6418,
      "ĠJamie": 6419,
      "ĠFor": 6420,
      "rol": 6421,
      "Ġstays": 6422,
      "Ġpens": 6423,
      "Ġvalued": 6424,
      "Ġavocados": 6425,
      "Ġgrowls": 6426,
      "Ġknocks": 6427,
      "Ġknees": 6428,
      "Ġpaddle": 6429,
      "ĠQuick": 6430,
      "Ġachieve": 6431,
      "Ġfascinated": 6432,
      "Ġwedding": 6433,
      "?'": 6434,
      "An": 6435,
      "Bunny": 6436,
      "Days": 6437,
      "Pete": 6438,
      "dam": 6439,
      "iti": 6440,
      "Ġcash": 6441,
      "ĠBop": 6442,
      "ĠCindy": 6443,
      "Ġshoulders": 6444,
      "Ġlistens": 6445,
      "Ġjoking": 6446,
      "Ġbeneath": 6447,
      "Ġguessing": 6448,
      "Ġbasement": 6449,
      "Annie": 6450,
      "Ġconfl": 6451,
      "sm": 6452,
      "tle": 6453,
      "Ġusually": 6454,
      "Ġbrand": 6455,
      "Ġremote": 6456,
      "ĠGet": 6457,
      "Ġowners": 6458,
      "Ġpassing": 6459,
      "ĠZiggy": 6460,
      "Johnny": 6461,
      "Ġpatiently": 6462,
      "Ġrockets": 6463,
      "Ġsolut": 6464,
      "Ġhealed": 6465,
      "Ġcamping": 6466,
      "ĠUnfortunately": 6467,
      "Ġscratches": 6468,
      "Ġcautious": 6469,
      "Rose": 6470,
      "eed": 6471,
      "eah": 6472,
      "ody": 6473,
      "Ġheav": 6474,
      "ĠSorry": 6475,
      "adly": 6476,
      "Ġscales": 6477,
      "Ġtraded": 6478,
      "Ġremembering": 6479,
      "Ġslower": 6480,
      "eese": 6481,
      "Ġnapkins": 6482,
      "ĠChr": 6483,
      "Ġcelebrating": 6484,
      "Ġperformed": 6485,
      "Ġrecording": 6486,
      "Ġprovided": 6487,
      "Ġobserved": 6488,
      "Ġconfident": 6489,
      "Roar": 6490,
      "Ġtwinkling": 6491,
      "Ġslammed": 6492,
      "Ġbeads": 6493,
      "Ġconflict": 6494,
      "Paul": 6495,
      "ners": 6496,
      "Ġtune": 6497,
      "Ġgeese": 6498,
      "Ġthorn": 6499,
      "Ġstool": 6500,
      "Ġroses": 6501,
      "ĠEls": 6502,
      "ĠThose": 6503,
      "Ġbadge": 6504,
      "Ġfarther": 6505,
      "Ġquacked": 6506,
      "Ġwears": 6507,
      "angled": 6508,
      "Ġcaused": 6509,
      "Ġclowns": 6510,
      "Ġfeeding": 6511,
      "Ġmasks": 6512,
      "Ġmushrooms": 6513,
      "Ġrotting": 6514,
      "Ġtwirling": 6515,
      "Ġraccoon": 6516,
      "Ġcrowd": 6517,
      "Ġintroduced": 6518,
      "For": 6519,
      "Out": 6520,
      "Polly": 6521,
      "Sn": 6522,
      "Ġbaker": 6523,
      "ido": 6524,
      "Ġgue": 6525,
      "ley": 6526,
      "Ġstern": 6527,
      "ĠLion": 6528,
      "Ġleast": 6529,
      "Ġvines": 6530,
      "Ġhowever": 6531,
      "Ġlifting": 6532,
      "Ġentr": 6533,
      "Ġrelief": 6534,
      "Shh": 6535,
      "Ġreflection": 6536,
      "Ġcashier": 6537,
      "Ġguest": 6538,
      "tuce": 6539,
      "Ġwow": 6540,
      "ĠTurtle": 6541,
      "anes": 6542,
      "ammy": 6543,
      "ĠMoo": 6544,
      "Ġclick": 6545,
      "Ġspong": 6546,
      "Ġunf": 6547,
      "Ġlettuce": 6548,
      "though": 6549,
      "Ġraces": 6550,
      "acob": 6551,
      "Ġplanning": 6552,
      "Ġlighter": 6553,
      "Ġcreating": 6554,
      "Ġavo": 6555,
      "Ġfigured": 6556,
      "Ġlollipops": 6557,
      "ĠFoxy": 6558,
      "Ġgrowling": 6559,
      "ĠBetsy": 6560,
      "cuse": 6561,
      "Buzz": 6562,
      "Ġchuckled": 6563,
      "Mike": 6564,
      "Run": 6565,
      "fl": 6566,
      "ĠYes": 6567,
      "ouch": 6568,
      "etty": 6569,
      "Ġseagull": 6570,
      "usted": 6571,
      "ĠKids": 6572,
      "Ġhides": 6573,
      "ĠZoe": 6574,
      "izzie": 6575,
      "Ġbatteries": 6576,
      "Ġstumble": 6577,
      "Ġsymbols": 6578,
      "Ġbuzzed": 6579,
      "ĠWhistle": 6580,
      "Ġcrumbs": 6581,
      "ky": 6582,
      "Ġmaker": 6583,
      "rious": 6584,
      "Ġrisk": 6585,
      "Ġearn": 6586,
      "ĠBall": 6587,
      "ĠAbbie": 6588,
      "ĠFu": 6589,
      "Ġknowled": 6590,
      "ustom": 6591,
      "Ġuns": 6592,
      "ĠSof": 6593,
      "Ġtwice": 6594,
      "Ġcomm": 6595,
      "Ġbravery": 6596,
      "Ġdances": 6597,
      "Ġbiting": 6598,
      "Ġsigned": 6599,
      "Ġshops": 6600,
      "Ġcovers": 6601,
      "Ġseeker": 6602,
      "Ġnecklaces": 6603,
      "Ġchoices": 6604,
      "Ġhonked": 6605,
      "Ġwobb": 6606,
      "Ġcubes": 6607,
      "Ġairplane": 6608,
      "Ġknowledge": 6609,
      "pite": 6610,
      "Ġtapped": 6611,
      "Ġcustom": 6612,
      "ĠAnt": 6613,
      "Ġspat": 6614,
      "ĠCar": 6615,
      "Ġforehead": 6616,
      "Ġwaiter": 6617,
      "Ġworkers": 6618,
      "Ġrestored": 6619,
      "Ġslowed": 6620,
      "Ġbuying": 6621,
      "Ġcontrol": 6622,
      "Ġleaning": 6623,
      "Ġbumps": 6624,
      "Ġsuperheroes": 6625,
      "Ġcheeks": 6626,
      "Excuse": 6627,
      "Ġpaddled": 6628,
      "die": 6629,
      "Ġties": 6630,
      "Ġsway": 6631,
      "Ġgle": 6632,
      "Ġseven": 6633,
      "icorn": 6634,
      "Ġscra": 6635,
      "ĠWoo": 6636,
      "Ġunicorn": 6637,
      "ĠKay": 6638,
      "Ġbehavi": 6639,
      "Ġdarkness": 6640,
      "Ġbaths": 6641,
      "Ġsalty": 6642,
      "Ġfuzzy": 6643,
      "Ġthud": 6644,
      "ĠSnowman": 6645,
      "Ġlungs": 6646,
      "ĠMatt": 6647,
      "Ġrefreshed": 6648,
      "Ġraindrops": 6649,
      "Great": 6650,
      "Pipp": 6651,
      "Whee": 6652,
      "bie": 6653,
      "uing": 6654,
      "Ġpec": 6655,
      "Ġpins": 6656,
      "Ġnine": 6657,
      "lets": 6658,
      "Ġplayers": 6659,
      "Ġkites": 6660,
      "retch": 6661,
      "Ġcolored": 6662,
      "ĠOlly": 6663,
      "Beep": 6664,
      "Ġforgets": 6665,
      "Ġswans": 6666,
      "Ġtwisting": 6667,
      "Ġcompletely": 6668,
      "Ġimproved": 6669,
      "laire": 6670,
      "Ġdirection": 6671,
      "Ġchefs": 6672,
      "Ġdots": 6673,
      "Follow": 6674,
      "Ġdarling": 6675,
      "Ġentrance": 6676,
      "Harry": 6677,
      "Zoom": 6678,
      "ĠTara": 6679,
      "itely": 6680,
      "Ġden": 6681,
      "atur": 6682,
      "Ġyounger": 6683,
      "ĠMon": 6684,
      "Ġexha": 6685,
      "Ġsomebody": 6686,
      "Ġgreet": 6687,
      "ĠDodo": 6688,
      "Ġbows": 6689,
      "oline": 6690,
      "Ġinterested": 6691,
      "Ġdecorating": 6692,
      "Ġpraying": 6693,
      "Ġdesigned": 6694,
      "Ġsniffs": 6695,
      "ĠYesterday": 6696,
      "ĠRollie": 6697,
      "Ġproperly": 6698,
      "ibbit": 6699,
      "Ġsquealed": 6700,
      "Ġsolution": 6701,
      "George": 6702,
      "Jerry": 6703,
      "Lilly": 6704,
      "Lola": 6705,
      "May": 6706,
      "Sunny": 6707,
      "ĠTree": 6708,
      "imon": 6709,
      "ĠMilo": 6710,
      "Ġlosing": 6711,
      "Ġstarfish": 6712,
      "aren": 6713,
      "ĠWo": 6714,
      "Ġfaced": 6715,
      "ĠDuck": 6716,
      "Ġskunk": 6717,
      "Ġgrabbing": 6718,
      "ĠCudd": 6719,
      "ĠCara": 6720,
      "itcase": 6721,
      "Ġbehaving": 6722,
      "Ġhider": 6723,
      "Ġdoctors": 6724,
      "Ġsuitcase": 6725,
      "Ġleading": 6726,
      "Ġwraps": 6727,
      "Ġtires": 6728,
      "Ġarrows": 6729,
      "Ġknots": 6730,
      "Ġwipes": 6731,
      "Ġitchy": 6732,
      "ĠRudy": 6733,
      "Ġinstrum": 6734,
      "Ġsponge": 6735,
      "Get": 6736,
      "Milly": 6737,
      "Pe": 6738,
      "Yeah": 6739,
      "aver": 6740,
      "ĠTry": 6741,
      "itched": 6742,
      "Ġdent": 6743,
      "Ġcrew": 6744,
      "Ġsobbed": 6745,
      "Ġreason": 6746,
      "Ġropes": 6747,
      "Ġage": 6748,
      "Ġswords": 6749,
      "ĠEnjoy": 6750,
      "ĠKatie": 6751,
      "ĠPo": 6752,
      "coat": 6753,
      "Ġshrinking": 6754,
      "Ġlifts": 6755,
      "Ġcelebration": 6756,
      "Ġstomped": 6757,
      "Ġsibl": 6758,
      "Ġaccomplish": 6759,
      "Ġsiblings": 6760,
      "Co": 6761,
      "Ġfreed": 6762,
      "Ġdet": 6763,
      "Ġgri": 6764,
      "ĠMouse": 6765,
      "oodles": 6766,
      "Ġbackward": 6767,
      "Those": 6768,
      "Ġglued": 6769,
      "ctions": 6770,
      "Ġrainy": 6771,
      "ĠRain": 6772,
      "ĠOther": 6773,
      "Ġpiggy": 6774,
      "Ġgenie": 6775,
      "Ġdiscovering": 6776,
      "Ġtoaster": 6777,
      "Ġpeeking": 6778,
      "Ġcuddly": 6779,
      "Ġstudents": 6780,
      "Ġsewed": 6781,
      "ĠGoodbye": 6782,
      "Ġtravell": 6783,
      "Ġpuppies": 6784,
      "Ġexhausted": 6785,
      "Big": 6786,
      "aa": 6787,
      "Ġtangled": 6788,
      "Ġsense": 6789,
      "Ġbumpy": 6790,
      "ĠTiti": 6791,
      "Ġplayhouse": 6792,
      "cky": 6793,
      "Ġdod": 6794,
      "Ġleap": 6795,
      "Ġfact": 6796,
      "Ġworries": 6797,
      "ĠJoy": 6798,
      "ives": 6799,
      "Ġunp": 6800,
      "Ġraincoat": 6801,
      "airy": 6802,
      "Ġmonth": 6803,
      "Ġsnowfl": 6804,
      "armer": 6805,
      "Ġwrapping": 6806,
      "Ġbracelets": 6807,
      "ronaut": 6808,
      "Charlie": 6809,
      "Ġflavor": 6810,
      "Ġactivities": 6811,
      "Ġastronaut": 6812,
      "Lulu": 6813,
      "Listen": 6814,
      "ael": 6815,
      "ossible": 6816,
      "ps": 6817,
      "ude": 6818,
      "isies": 6819,
      "step": 6820,
      "ĠMa": 6821,
      "Ġalien": 6822,
      "ĠJump": 6823,
      "ĠFido": 6824,
      "Ġflames": 6825,
      "Ġtwinkle": 6826,
      "Ġuntie": 6827,
      "Ġimpossible": 6828,
      "Ġache": 6829,
      "ences": 6830,
      "Ġdived": 6831,
      "Ġpartic": 6832,
      "Ġtickled": 6833,
      "Ġblooming": 6834,
      "Ġwarnings": 6835,
      "rrr": 6836,
      "Ġhesitated": 6837,
      "ĠBarky": 6838,
      "Ġpancakes": 6839,
      "Ġpecked": 6840,
      "cher": 6841,
      "fus": 6842,
      "inch": 6843,
      "arth": 6844,
      "Ġrotten": 6845,
      "Ġrising": 6846,
      "stick": 6847,
      "Ġnotes": 6848,
      "ĠBones": 6849,
      "Ġscur": 6850,
      "abel": 6851,
      "Ġblown": 6852,
      "Ġchoo": 6853,
      "ĠEl": 6854,
      "Ġneedles": 6855,
      "ĠRolly": 6856,
      "Ġplans": 6857,
      "Ġmuscle": 6858,
      "ĠZee": 6859,
      "ĠStay": 6860,
      "ivity": 6861,
      "Ġcompetition": 6862,
      "Ġtunnels": 6863,
      "Ġsilent": 6864,
      "Ġrecommended": 6865,
      "Ġtipto": 6866,
      "Ġdaisies": 6867,
      "no": 6868,
      "prin": 6869,
      "rat": 6870,
      "Ġty": 6871,
      "Ġcous": 6872,
      "lle": 6873,
      "Ġrusty": 6874,
      "Ġstung": 6875,
      "Ġclues": 6876,
      "Ġscored": 6877,
      "Ġranger": 6878,
      "ept": 6879,
      "ushing": 6880,
      "aura": 6881,
      "Joey": 6882,
      "Ġguide": 6883,
      "Ġshaped": 6884,
      "ĠAnne": 6885,
      "Ġpaying": 6886,
      "Ġincreased": 6887,
      "ĠNothing": 6888,
      "Ġdirections": 6889,
      "ĠMixy": 6890,
      "Ġparticular": 6891,
      "Dan": 6892,
      "Dave": 6893,
      "Kiki": 6894,
      "vin": 6895,
      "Ġtying": 6896,
      "sequ": 6897,
      "ulp": 6898,
      "Ġswept": 6899,
      "Ġsnat": 6900,
      "Ġtractor": 6901,
      "itches": 6902,
      "Ġqueens": 6903,
      "Ġcreativity": 6904,
      "ĠBlinky": 6905,
      "uggles": 6906,
      "Ġgroups": 6907,
      "ĠTrust": 6908,
      "Ġsunflowers": 6909,
      "Ġquarreled": 6910,
      "Ġinsects": 6911,
      "Ġencourag": 6912,
      "Ġrewarded": 6913,
      "Ġburrow": 6914,
      "Ġdamage": 6915,
      "Ġsatisfied": 6916,
      "Ġglee": 6917,
      "Ġscurried": 6918,
      "Luckily": 6919,
      "Maggie": 6920,
      "Ribbit": 6921,
      "but": 6922,
      "eal": 6923,
      "Ġmater": 6924,
      "onnie": 6925,
      "ĠSc": 6926,
      "ĠHug": 6927,
      "ĠHold": 6928,
      "Ġthro": 6929,
      "ĠBirthday": 6930,
      "umbled": 6931,
      "ults": 6932,
      "anta": 6933,
      "ĠEarth": 6934,
      "Ġwindy": 6935,
      "Ġconsequ": 6936,
      "Ġdancers": 6937,
      "ĠToot": 6938,
      "iversity": 6939,
      "Ġcorners": 6940,
      "brush": 6941,
      "ĠNick": 6942,
      "Ġvanilla": 6943,
      "Ġspreading": 6944,
      "ĠMissy": 6945,
      "ĠPatty": 6946,
      "Quack": 6947,
      "Ġsewing": 6948,
      "Ġheavier": 6949,
      "Ġmaterial": 6950,
      "Ġthroat": 6951,
      "Under": 6952,
      "len": 6953,
      "Ġbak": 6954,
      "ering": 6955,
      "Ġnoodles": 6956,
      "ĠSun": 6957,
      "ĠLuke": 6958,
      "Ġshoo": 6959,
      "Ġtreehouse": 6960,
      "Ġbackwards": 6961,
      "Ġfins": 6962,
      "Ġtalks": 6963,
      "Ġblocking": 6964,
      "ĠAsh": 6965,
      "Ġjobs": 6966,
      "Ġsprang": 6967,
      "Ġsailors": 6968,
      "Ġrecipe": 6969,
      "Ġimagining": 6970,
      "ĠStretch": 6971,
      "Ġpresses": 6972,
      "Ġpleasure": 6973,
      "Ġpreparing": 6974,
      "ĠTweetie": 6975,
      "Ġzipping": 6976,
      "Ġblinking": 6977,
      "Ġincluding": 6978,
      "Ġgrocer": 6979,
      "Ġseconds": 6980,
      "ĠJulie": 6981,
      "Tweet": 6982,
      "Ġfirefighters": 6983,
      "ĠPrincess": 6984,
      "Ġcautiously": 6985,
      "Ġunsure": 6986,
      "ĠCuddles": 6987,
      "Ġconsequences": 6988,
      "hi": 6989,
      "ne": 6990,
      "vroom": 6991,
      "Ġaff": 6992,
      "Ġlower": 6993,
      "Ġcott": 6994,
      "ĠSimon": 6995,
      "ans": 6996,
      "ĠOnly": 6997,
      "Ġshown": 6998,
      "Ġnect": 6999,
      "Ġbodies": 7000,
      "inda": 7001,
      "ongrat": 7002,
      "ĠJune": 7003,
      "ĠFarmer": 7004,
      "Ġafterwards": 7005,
      "ĠRich": 7006,
      "Ġmarked": 7007,
      "ichael": 7008,
      "Ġsparks": 7009,
      "Ġcalmed": 7010,
      "Ġsupported": 7011,
      "Ġprincesses": 7012,
      "Ġtriangles": 7013,
      "Ġscooters": 7014,
      "Ġscrews": 7015,
      "Ġobjects": 7016,
      "Ġpurr": 7017,
      "Ġunpacked": 7018,
      "Ġnectar": 7019,
      "cl": 7020,
      "hog": 7021,
      "jo": 7022,
      "Ġcoop": 7023,
      "Ġsan": 7024,
      "atty": 7025,
      "Ġyelp": 7026,
      "Ġopp": 7027,
      "Ġrust": 7028,
      "endy": 7029,
      "ades": 7030,
      "ĠAdam": 7031,
      "obody": 7032,
      "iles": 7033,
      "Ġflipped": 7034,
      "Ġfeast": 7035,
      "Ġtramp": 7036,
      "Ġbudge": 7037,
      "Ġuntied": 7038,
      "Ġadult": 7039,
      "Ġconn": 7040,
      "Ġcuriously": 7041,
      "Ġsweets": 7042,
      "Ġprinting": 7043,
      "Ġcounts": 7044,
      "Ġnests": 7045,
      "Ġpaths": 7046,
      "Ġzebras": 7047,
      "Ġhedgehog": 7048,
      "Ġjackets": 7049,
      "Ġseparated": 7050,
      "Ġfilms": 7051,
      "Ġlabels": 7052,
      "Ġfirefly": 7053,
      "Ġtossed": 7054,
      "Ġmailed": 7055,
      "Ġbeginning": 7056,
      "Ġdeserve": 7057,
      "ĠJessica": 7058,
      "Ruby": 7059,
      "Ġavoid": 7060,
      "ongratul": 7061,
      "Ġtrampoline": 7062,
      "Like": 7063,
      "Moo": 7064,
      "fall": 7065,
      "ĠSleep": 7066,
      "ters": 7067,
      "opes": 7068,
      "Ġswir": 7069,
      "Ġfever": 7070,
      "Ġchop": 7071,
      "Ġwatering": 7072,
      "ĠCow": 7073,
      "ĠPlay": 7074,
      "ĠRuff": 7075,
      "Ġindeed": 7076,
      "Ġtricky": 7077,
      "Ġfrowning": 7078,
      "However": 7079,
      "Ġloops": 7080,
      "Ġwiping": 7081,
      "Ġdetermination": 7082,
      "Ġpupils": 7083,
      "Ġachieved": 7084,
      "ĠChewy": 7085,
      "Ġsank": 7086,
      "Danny": 7087,
      "bric": 7088,
      "iar": 7089,
      "liver": 7090,
      "rink": 7091,
      "rup": 7092,
      "ĠSadly": 7093,
      "Ġbeam": 7094,
      "Ġrushing": 7095,
      "Ġstem": 7096,
      "Ġstitches": 7097,
      "Ġfabric": 7098,
      "ĠJessie": 7099,
      "Ġflapping": 7100,
      "Ġchara": 7101,
      "athy": 7102,
      "Ġlessons": 7103,
      "Ġmeals": 7104,
      "ĠSnuggles": 7105,
      "Ġcushions": 7106,
      "Ġnightmares": 7107,
      "ĠMaya": 7108,
      "Ġcharac": 7109,
      "Penny": 7110,
      "oll": 7111,
      "zie": 7112,
      "immer": 7113,
      "vers": 7114,
      "ces": 7115,
      "Ġwept": 7116,
      "ĠMad": 7117,
      "elia": 7118,
      "Ġtwenty": 7119,
      "Ġdeal": 7120,
      "Ġgrows": 7121,
      "Ġcreations": 7122,
      "Ġpops": 7123,
      "ĠWithout": 7124,
      "Ġpinching": 7125,
      "Ġsnatched": 7126,
      "Am": 7127,
      "Betty": 7128,
      "cused": 7129,
      "pen": 7130,
      "ition": 7131,
      "itude": 7132,
      "Ġgross": 7133,
      "ĠSl": 7134,
      "ĠHannah": 7135,
      "Ġrepa": 7136,
      "agic": 7137,
      "ishy": 7138,
      "Ġchos": 7139,
      "using": 7140,
      "ĠDara": 7141,
      "ĠDina": 7142,
      "Ġposter": 7143,
      "ĠCr": 7144,
      "Ġripe": 7145,
      "Ġpassen": 7146,
      "Ġimages": 7147,
      "ĠBeaky": 7148,
      "Ġsprinkled": 7149,
      "Ġpuppet": 7150,
      "Ġforgiving": 7151,
      "Ġcenter": 7152,
      "Ġpouted": 7153,
      "Ġtiptoed": 7154,
      "Ġbakery": 7155,
      "Ġrepaired": 7156,
      "Ġchosen": 7157,
      "Bill": 7158,
      "Henry": 7159,
      "Sophie": 7160,
      "Vroom": 7161,
      "band": 7162,
      "rig": 7163,
      "uzz": 7164,
      "Ġturt": 7165,
      "omp": 7166,
      "Ġyum": 7167,
      "ĠBri": 7168,
      "child": 7169,
      "ĠAng": 7170,
      "andas": 7171,
      "Ġfocused": 7172,
      "Ġthrown": 7173,
      "athan": 7174,
      "Ġgrassy": 7175,
      "Ġbelts": 7176,
      "Ġdrawn": 7177,
      "ĠBloom": 7178,
      "Ġforgetting": 7179,
      "Ġmatters": 7180,
      "Ġcamel": 7181,
      "Ġreversed": 7182,
      "Ġlending": 7183,
      "Ġshovels": 7184,
      "Ġpedaled": 7185,
      "Ġspikes": 7186,
      "ĠCrab": 7187,
      "Ġwidened": 7188,
      "Ġseasons": 7189,
      "Ġannoy": 7190,
      "Ġinstruments": 7191,
      "prints": 7192,
      "Ġcousin": 7193,
      "Ġturtles": 7194,
      "Ab": 7195,
      "Bear": 7196,
      "cited": 7197,
      "uess": 7198,
      "Ġtipped": 7199,
      "ĠSe": 7200,
      "orman": 7201,
      "river": 7202,
      "ĠIzzy": 7203,
      "itted": 7204,
      "cho": 7205,
      "Ġthoughts": 7206,
      "Ġflas": 7207,
      "Ġunw": 7208,
      "bert": 7209,
      "Ġstolen": 7210,
      "Ġrains": 7211,
      "Ġexplo": 7212,
      "Ġhearing": 7213,
      "Ġsingle": 7214,
      "Ġfires": 7215,
      "Ġperforman": 7216,
      "Ġtighter": 7217,
      "Ġmints": 7218,
      "Ġdrivers": 7219,
      "ĠNut": 7220,
      "ĠNobody": 7221,
      "ophia": 7222,
      "Ġsqueak": 7223,
      "Ġmagnif": 7224,
      "Ġborrowed": 7225,
      "Ġfigures": 7226,
      "Ġenvelopes": 7227,
      "ĠTweety": 7228,
      "Ġgrandchild": 7229,
      "Ġwiggly": 7230,
      "Ġyielded": 7231,
      "Ġsuffered": 7232,
      "Ġregretted": 7233,
      "Ġwobble": 7234,
      "ĠMatilda": 7235,
      "ĠFuzzy": 7236,
      "Ġwobbly": 7237,
      "Ġaccomplishment": 7238,
      "Ġencouraging": 7239,
      "Alex": 7240,
      "Teddy": 7241,
      "father": 7242,
      "hive": 7243,
      "uppy": 7244,
      "Ġbacked": 7245,
      "Ġhoo": 7246,
      "Ġdip": 7247,
      "ĠSanta": 7248,
      "Ġecho": 7249,
      "ĠLoop": 7250,
      "ĠLizzie": 7251,
      "Ġspins": 7252,
      "ĠWilly": 7253,
      "ĠJacob": 7254,
      "Ġchanges": 7255,
      "Ġwaterfall": 7256,
      "Ġsurprising": 7257,
      "Ġstopping": 7258,
      "ĠPr": 7259,
      "Ġtouches": 7260,
      "Ġleads": 7261,
      "Ġslips": 7262,
      "Ġcountryside": 7263,
      "Quick": 7264,
      "ĠAbi": 7265,
      "ĠJulia": 7266,
      "hopper": 7267,
      "aturday": 7268,
      "?!\"": 7269,
      "Jump": 7270,
      "Take": 7271,
      "da": 7272,
      "the": 7273,
      "yes": 7274,
      "Ġpandas": 7275,
      "omb": 7276,
      "iding": 7277,
      "ĠSaturday": 7278,
      "igers": 7279,
      "Ġplain": 7280,
      "ĠLaura": 7281,
      "iece": 7282,
      "ĠClaire": 7283,
      "ĠPinch": 7284,
      "Dolly": 7285,
      "Ġbeehive": 7286,
      "Ġcrossing": 7287,
      "Ġhumming": 7288,
      "ĠUp": 7289,
      "affle": 7290,
      "Ġrescuing": 7291,
      "Ġmosquitoes": 7292,
      "Ġsurfboard": 7293,
      "Ġsuffering": 7294,
      "ĠSparky": 7295,
      "Ġstroll": 7296,
      "Ġstroke": 7297,
      "Ġfluttered": 7298,
      "rigued": 7299,
      "Ellie": 7300,
      "Hurry": 7301,
      "Sandy": 7302,
      "ĠTake": 7303,
      "Ġmer": 7304,
      "oni": 7305,
      "Ġbeaver": 7306,
      "Ġrather": 7307,
      "ĠListen": 7308,
      "ĠMel": 7309,
      "Ġsofter": 7310,
      "illed": 7311,
      "ĠJay": 7312,
      "Ġflip": 7313,
      "ĠGary": 7314,
      "ĠDoctor": 7315,
      "Ġstands": 7316,
      "Ġrobber": 7317,
      "Ġpanicked": 7318,
      "Ġhopeful": 7319,
      "Ġminded": 7320,
      "Ġwakes": 7321,
      "Ġsuits": 7322,
      "Ġsurfing": 7323,
      "Ġhaircuts": 7324,
      "Ġgears": 7325,
      "Always": 7326,
      "Ġpassports": 7327,
      "ĠAmber": 7328,
      "Ġstroked": 7329,
      "ĠJudy": 7330,
      "Ġforgiven": 7331,
      "Ġ10": 7332,
      "Ġgroceries": 7333,
      "ĠNutty": 7334,
      "Boys": 7335,
      "Millie": 7336,
      "Zoomy": 7337,
      "Ġdaring": 7338,
      "igning": 7339,
      "Ġrowed": 7340,
      "Ġev": 7341,
      "Ġlies": 7342,
      "ĠBub": 7343,
      "Ġaside": 7344,
      "Ġscient": 7345,
      "Ġeverybody": 7346,
      "Ġchip": 7347,
      "ĠMomma": 7348,
      "ĠAndrew": 7349,
      "Ġends": 7350,
      "Ġgardener": 7351,
      "Ġfart": 7352,
      "Ġstrongest": 7353,
      "Ġwarmer": 7354,
      "Ġworrying": 7355,
      "Ġswimmer": 7356,
      "Ġjoining": 7357,
      "Ġrivers": 7358,
      "Ġbaskets": 7359,
      "Ġmarkers": 7360,
      "ments": 7361,
      "Ġsharks": 7362,
      "Ġrelaxing": 7363,
      "Ġbeetles": 7364,
      "Ġsending": 7365,
      "Ġdisturbing": 7366,
      "Ġcoloured": 7367,
      "Ġrepeating": 7368,
      "ibi": 7369,
      "ĠWooly": 7370,
      "Ġgreeted": 7371,
      "Ġsnowflakes": 7372,
      "Ġperformance": 7373,
      "Ġscientist": 7374,
      "'.\"": 7375,
      "Bow": 7376,
      "Baby": 7377,
      "Bessie": 7378,
      "yond": 7379,
      "Ġais": 7380,
      "ĠHolly": 7381,
      "Ġbeyond": 7382,
      "ĠLia": 7383,
      "Ġreass": 7384,
      "acky": 7385,
      "ighting": 7386,
      "ĠWise": 7387,
      "ĠWendy": 7388,
      "ĠFire": 7389,
      "Ġpose": 7390,
      "Ġamount": 7391,
      "gestion": 7392,
      "Ġtearing": 7393,
      "Ġstored": 7394,
      "iona": 7395,
      "Ġsinger": 7396,
      "Ġgrasshopper": 7397,
      "Ġbits": 7398,
      "Ġ--": 7399,
      "Ġmarker": 7400,
      "Ġsuggestion": 7401,
      "ĠShadow": 7402,
      "ĠRufus": 7403,
      "Ġpurrs": 7404,
      "Ġrespond": 7405,
      "Ġwounds": 7406,
      "Ġtalented": 7407,
      "Coco": 7408,
      "Ġfreedom": 7409,
      "Ġastronauts": 7410,
      "Guess": 7411,
      "Jazz": 7412,
      "Mine": 7413,
      "Very": 7414,
      "Wake": 7415,
      "cope": 7416,
      "fire": 7417,
      "lo": 7418,
      "Ġtiss": 7419,
      "Ġsy": 7420,
      "Ġsou": 7421,
      "eds": 7422,
      "Ġbam": 7423,
      "Ġbomb": 7424,
      "Ġcor": 7425,
      "Ġmate": 7426,
      "llas": 7427,
      "inger": 7428,
      "ĠHenny": 7429,
      "rain": 7430,
      "Ġrods": 7431,
      "ĠWaffle": 7432,
      "Ġworn": 7433,
      "ĠDee": 7434,
      "ĠCut": 7435,
      "Ġovercome": 7436,
      "bbled": 7437,
      "ĠKaren": 7438,
      "Ġdef": 7439,
      "Ġtricycle": 7440,
      "Ġdripping": 7441,
      "ĠChip": 7442,
      "Ġbells": 7443,
      "Ġbandages": 7444,
      "Ġships": 7445,
      "Ġwisely": 7446,
      "Ġnervously": 7447,
      "Ġterrified": 7448,
      "Ġerase": 7449,
      "Ġumbrellas": 7450,
      "Ġhealth": 7451,
      "attered": 7452,
      "Mrs": 7453,
      "Ġtrembled": 7454,
      "ĠUniversity": 7455,
      "Ġcrashing": 7456,
      "Ġlicking": 7457,
      "Clara": 7458,
      "Ġguests": 7459,
      "Ġtissue": 7460,
      "Ġbamboo": 7461,
      "Kim": 7462,
      "Mat": 7463,
      "Slow": 7464,
      "five": 7465,
      "Ġpuff": 7466,
      "Ġinches": 7467,
      "vered": 7468,
      "Ġrumble": 7469,
      "ĠMan": 7470,
      "ĠMother": 7471,
      "Ġsped": 7472,
      "ĠFairy": 7473,
      "Ġpeck": 7474,
      "ĠEx": 7475,
      "oga": 7476,
      "Ġhandful": 7477,
      "asty": 7478,
      "Ġcheers": 7479,
      "Ġdollars": 7480,
      "Ġcracks": 7481,
      "Ġcolder": 7482,
      "boat": 7483,
      "Ġsmelling": 7484,
      "ĠOliver": 7485,
      "Ġpaintbrush": 7486,
      "Ġstreets": 7487,
      "ĠNice": 7488,
      "ĠNear": 7489,
      "Ġneighbours": 7490,
      "awn": 7491,
      "ĠStella": 7492,
      "Ġmiller": 7493,
      "Ġspills": 7494,
      "Ġsheets": 7495,
      "Ġhallway": 7496,
      "ĠIsn": 7497,
      "ĠChrist": 7498,
      "Ġthorns": 7499,
      "Ġgrip": 7500,
      "Ġfarthest": 7501,
      "mies": 7502,
      "oey": 7503,
      "Ġtigers": 7504,
      "Ġmoo": 7505,
      "Ġmaster": 7506,
      "ĠSal": 7507,
      "ilver": 7508,
      "cept": 7509,
      "ently": 7510,
      "Ġknives": 7511,
      "Ġwilling": 7512,
      "retty": 7513,
      "Ġswap": 7514,
      "usband": 7515,
      "Ġdrifted": 7516,
      "Ġcreams": 7517,
      "Ġcloudy": 7518,
      "Josh": 7519,
      "angle": 7520,
      "Ġcowb": 7521,
      "Ġfootprints": 7522,
      "Ġkittens": 7523,
      "Ġwhispers": 7524,
      "Ġperforming": 7525,
      "Ġmagnets": 7526,
      "Ġscattering": 7527,
      "Ġscrewd": 7528,
      "umbling": 7529,
      "Ġbreathed": 7530,
      "Buzzy": 7531,
      "Ġflavors": 7532,
      "Ġswimsuit": 7533,
      "Ġmesmer": 7534,
      "Ġcustomer": 7535,
      "Ġdentist": 7536,
      "Ġcooper": 7537,
      "Ġpassengers": 7538,
      "Ġunwra": 7539,
      "Car": 7540,
      "Dear": 7541,
      "bell": 7542,
      "parent": 7543,
      "vy": 7544,
      "wk": 7545,
      "Ġaimed": 7546,
      "Ġaud": 7547,
      "ita": 7548,
      "Ġlent": 7549,
      "Ġnapped": 7550,
      "onna": 7551,
      "Ġgonna": 7552,
      "stalk": 7553,
      "Ġwee": 7554,
      "ading": 7555,
      "ĠBibi": 7556,
      "ĠMic": 7557,
      "Ġseals": 7558,
      "Ġspies": 7559,
      "Ġblocked": 7560,
      "Ġchar": 7561,
      "Ġamong": 7562,
      "romise": 7563,
      "Ġcleaner": 7564,
      "Ġsquaw": 7565,
      "Ġsquishy": 7566,
      "Ġbravest": 7567,
      "issa": 7568,
      "Ġwrigg": 7569,
      "Ġbeloved": 7570,
      "Ġdrawers": 7571,
      "Ġhotter": 7572,
      "Ġantic": 7573,
      "Ġseawe": 7574,
      "ounce": 7575,
      "Ġsecure": 7576,
      "Ġrespected": 7577,
      "Ġhoriz": 7578,
      "ĠThanks": 7579,
      "Ġpuzzled": 7580,
      "Ġfootstep": 7581,
      "Ġrobots": 7582,
      "Ġtrusting": 7583,
      "Ġsneezes": 7584,
      "Ġbeanstalk": 7585,
      "ĠAlong": 7586,
      "Ġgracefully": 7587,
      "Ġbicycles": 7588,
      "Ġotters": 7589,
      "ĠRobert": 7590,
      "Ġgrandfather": 7591,
      "Ġscolds": 7592,
      "Ġburnt": 7593,
      "Ġslices": 7594,
      "ĠBoat": 7595,
      "Ġspits": 7596,
      "Ġhesitant": 7597,
      "Ġrefreshing": 7598,
      "Pippin": 7599,
      "Ġyelped": 7600,
      "Ġevil": 7601,
      "Ġaudience": 7602,
      "Ġseaweed": 7603,
      "Ġfootsteps": 7604,
      "Nice": 7605,
      "iel": 7606,
      "mine": 7607,
      "mallow": 7608,
      "urious": 7609,
      "Ġ2": 7610,
      "Ġfaded": 7611,
      "Ġwaking": 7612,
      "Ġcongratul": 7613,
      "Ġnur": 7614,
      "ider": 7615,
      "Ġund": 7616,
      "Ġhiss": 7617,
      "Ġneare": 7618,
      "Ġwhimp": 7619,
      "Ġbru": 7620,
      "Ġdoorbell": 7621,
      "Ġbluebird": 7622,
      "ĠKelly": 7623,
      "ĠRe": 7624,
      "Ġwrink": 7625,
      "Ġconc": 7626,
      "shmallow": 7627,
      "Ġcreamy": 7628,
      "Ġdropping": 7629,
      "Ġsails": 7630,
      "Ġsource": 7631,
      "Ġlaying": 7632,
      "Ġgiggles": 7633,
      "Ġmelons": 7634,
      "Ġtwists": 7635,
      "Ġfrowns": 7636,
      "Ġreminds": 7637,
      "Ġspeeding": 7638,
      "ĠRobo": 7639,
      "Ġgrandparent": 7640,
      "Ġslipping": 7641,
      "Ġlanguages": 7642,
      "Ġsports": 7643,
      "Ġsimply": 7644,
      "Spike": 7645,
      "Ġsweaty": 7646,
      "ummies": 7647,
      "Ġfirmly": 7648,
      "Ġscraped": 7649,
      "Ġmaterials": 7650,
      "ĠAngel": 7651,
      "Ġscrewdriver": 7652,
      "Ġhorizon": 7653,
      "Bang": 7654,
      "Tony": 7655,
      "cc": 7656,
      "Ġtar": 7657,
      "hew": 7658,
      "Ġsill": 7659,
      "Ġtodd": 7660,
      "Ġhusband": 7661,
      "Ġwadd": 7662,
      "Ġdarl": 7663,
      "Ġcoup": 7664,
      "Ġcert": 7665,
      "Ġmast": 7666,
      "Ġnuzz": 7667,
      "Ġsale": 7668,
      "ĠSilver": 7669,
      "orter": 7670,
      "Ġocc": 7671,
      "Ġelf": 7672,
      "Ġroars": 7673,
      "Ġcosy": 7674,
      "Ġintrigued": 7675,
      "ĠDot": 7676,
      "Ġslither": 7677,
      "ĠCathy": 7678,
      "pecting": 7679,
      "Ġdonkey": 7680,
      "Ġfocus": 7681,
      "Ġmagician": 7682,
      "ĠPuppy": 7683,
      "tha": 7684,
      "Ġsweetest": 7685,
      "Ġmarshmallow": 7686,
      "Ġquieter": 7687,
      "Finny": 7688,
      "Ġsailboat": 7689,
      "Ġzooms": 7690,
      "Ġserving": 7691,
      "ĠNana": 7692,
      "Ġexpress": 7693,
      "Ġadds": 7694,
      "Ġcampfire": 7695,
      "Ġtubes": 7696,
      "Ġstudent": 7697,
      "Ġbothering": 7698,
      "ĠSuzie": 7699,
      "Outside": 7700,
      "Snow": 7701,
      "Ġdarlings": 7702,
      "',": 7703,
      "Olive": 7704,
      "Put": 7705,
      "Try": 7706,
      "een": 7707,
      "ivery": 7708,
      "mas": 7709,
      "Ġtummies": 7710,
      "Ġhour": 7711,
      "rect": 7712,
      "Ġdie": 7713,
      "Ġpuck": 7714,
      "Ġwasting": 7715,
      "Ġhawk": 7716,
      "Ġplug": 7717,
      "veral": 7718,
      "ĠLaser": 7719,
      "ĠLuckily": 7720,
      "Ġmommies": 7721,
      "Ġwhales": 7722,
      "Ġseveral": 7723,
      "Ġlapt": 7724,
      "ĠWell": 7725,
      "ssy": 7726,
      "iley": 7727,
      "dding": 7728,
      "Ġprove": 7729,
      "ĠElle": 7730,
      "Ġchecks": 7731,
      "bba": 7732,
      "ipation": 7733,
      "Ġhates": 7734,
      "Ġcons": 7735,
      "Ġfills": 7736,
      "Ġpurpose": 7737,
      "Ġraising": 7738,
      "Ġbelieving": 7739,
      "Ġcourt": 7740,
      "ertie": 7741,
      "ĠBecky": 7742,
      "Ġcrowns": 7743,
      "Ġtests": 7744,
      "Ġstacks": 7745,
      "ĠShare": 7746,
      "Ġspells": 7747,
      "ĠRobbie": 7748,
      "Ġlipstick": 7749,
      "Ġdelayed": 7750,
      "Ġcubs": 7751,
      "Ġmeows": 7752,
      "Ġtwinkled": 7753,
      "ĠJudge": 7754,
      "ĠElsie": 7755,
      "Ġrisks": 7756,
      "ĠKayla": 7757,
      "Ġbehavior": 7758,
      "Ġdodged": 7759,
      "Ġcorrect": 7760,
      "Ġanticipation": 7761,
      "Ġcouple": 7762,
      "Ġlaptop": 7763,
      "Aunt": 7764,
      "Even": 7765,
      "daughter": 7766,
      "found": 7767,
      "ibbles": 7768,
      "zoom": 7769,
      "Ġbitten": 7770,
      "Ġfif": 7771,
      "Ġcoug": 7772,
      "isions": 7773,
      "rier": 7774,
      "Ġwithin": 7775,
      "Ġstain": 7776,
      "unched": 7777,
      "ĠLy": 7778,
      "allowed": 7779,
      "ĠMichael": 7780,
      "Ġshady": 7781,
      "alph": 7782,
      "Ġloses": 7783,
      "aint": 7784,
      "ellow": 7785,
      "ooks": 7786,
      "ĠFighting": 7787,
      "Ġflown": 7788,
      "Ġswallowed": 7789,
      "Ġdecisions": 7790,
      "Ġposes": 7791,
      "Ġcoloring": 7792,
      "ails": 7793,
      "ĠPine": 7794,
      "Ġhandsome": 7795,
      "ĠJackie": 7796,
      "Ġthroughout": 7797,
      "ĠZippy": 7798,
      "Ġquestioned": 7799,
      "Ġaction": 7800,
      "Ġtested": 7801,
      "Ġseller": 7802,
      "Ġhealing": 7803,
      "Ġtaped": 7804,
      "Ġangels": 7805,
      "Ġencount": 7806,
      "Ġenthusiasm": 7807,
      "Alright": 7808,
      "Ġneatly": 7809,
      "Ġbeeped": 7810,
      "Chloe": 7811,
      "Ġhumans": 7812,
      "Ġstrips": 7813,
      "Ġbreathing": 7814,
      "ĠSparkle": 7815,
      "udged": 7816,
      "ĠLouise": 7817,
      "Frank": 7818,
      "Maria": 7819,
      "ĠEliz": 7820,
      "Ġcharacters": 7821,
      "immering": 7822,
      "ĠPinchy": 7823,
      "ĠChristmas": 7824,
      "Ġtarget": 7825,
      "Back": 7826,
      "Near": 7827,
      "Rock": 7828,
      "over": 7829,
      "rough": 7830,
      "vant": 7831,
      "Ġmerry": 7832,
      "ĠSophia": 7833,
      "ility": 7834,
      "oosh": 7835,
      "Ġstacked": 7836,
      "ĠBingo": 7837,
      "ĠBonnie": 7838,
      "ĠMore": 7839,
      "ĠMatch": 7840,
      "Ġmanag": 7841,
      "Ġswitched": 7842,
      "Ġswoll": 7843,
      "Which": 7844,
      "Ġcheated": 7845,
      "beep": 7846,
      "ĠOkay": 7847,
      "Ġpolitely": 7848,
      "Ġpills": 7849,
      "Ġbathing": 7850,
      "Ġfits": 7851,
      "Ġdesper": 7852,
      "Ġpours": 7853,
      "Ġactive": 7854,
      "Ġprayers": 7855,
      "ĠPeanut": 7856,
      "Ġdelivering": 7857,
      "Ġpleaded": 7858,
      "ĠBiggy": 7859,
      "Ġgazing": 7860,
      "Ġsurroundings": 7861,
      "Ġpancake": 7862,
      "ĠFishy": 7863,
      "Ġmesses": 7864,
      "Ġsyrup": 7865,
      "Ġswollen": 7866,
      "Mira": 7867,
      "Zip": 7868,
      "udy": 7869,
      "Ġtuck": 7870,
      "int": 7871,
      "reg": 7872,
      "rever": 7873,
      "Ġpound": 7874,
      "Ġmunch": 7875,
      "Ġmiles": 7876,
      "ĠSay": 7877,
      "ening": 7878,
      "lephant": 7879,
      "Ġliqu": 7880,
      "ĠBumpy": 7881,
      "urricane": 7882,
      "Ġreapp": 7883,
      "Ġaren": 7884,
      "Ġscri": 7885,
      "Ġscamp": 7886,
      "Ġnodding": 7887,
      "Ġcond": 7888,
      "ĠJonny": 7889,
      "Ġflight": 7890,
      "Ġswallow": 7891,
      "Ġcares": 7892,
      "Ġpeep": 7893,
      "Ġtweet": 7894,
      "ĠKit": 7895,
      "emma": 7896,
      "Ġsquir": 7897,
      "ĠRel": 7898,
      "ĠGerry": 7899,
      "ĠGray": 7900,
      "Ġdrown": 7901,
      "Ġarr": 7902,
      "artled": 7903,
      "Ġshinier": 7904,
      "Ġpeacefully": 7905,
      "Ġsqueezing": 7906,
      "Ġtemper": 7907,
      "Ġsniffing": 7908,
      "Ġtravels": 7909,
      "Ġdisplayed": 7910,
      "Ġpermitted": 7911,
      "Ġexplains": 7912,
      "ĠCopper": 7913,
      "Ġgroan": 7914,
      "Ġartist": 7915,
      "Ġdiscussed": 7916,
      "Ġsandcastles": 7917,
      ".'\"": 7918,
      "Ġwider": 7919,
      "Ġfirefighter": 7920,
      "ĠBubu": 7921,
      "Ġcongratulated": 7922,
      "Ġtoddler": 7923,
      "reverse": 7924,
      "Ġliquid": 7925,
      "By": 7926,
      "Kate": 7927,
      "Keep": 7928,
      "Liz": 7929,
      "Nina": 7930,
      "Pat": 7931,
      "Su": 7932,
      "aven": 7933,
      "crow": 7934,
      "fly": 7935,
      "sie": 7936,
      "yan": 7937,
      "hel": 7938,
      "ĠTerry": 7939,
      "Ġheight": 7940,
      "ative": 7941,
      "ĠSilly": 7942,
      "ancy": 7943,
      "ppies": 7944,
      "Ġonward": 7945,
      "ĠMake": 7946,
      "espite": 7947,
      "Ġshall": 7948,
      "Ġsmashed": 7949,
      "elie": 7950,
      "Ġclue": 7951,
      "Ġbacks": 7952,
      "Ġwhoever": 7953,
      "Ġlongest": 7954,
      "Ġbubb": 7955,
      "Ġsandy": 7956,
      "Ġdisob": 7957,
      "Ġtops": 7958,
      "Ġsets": 7959,
      "Ġattem": 7960,
      "ĠChirp": 7961,
      "Ġbanged": 7962,
      "Ġsolving": 7963,
      "Ġscarecrow": 7964,
      "Ġpays": 7965,
      "Ġignoring": 7966,
      "Ġteams": 7967,
      "Ġrats": 7968,
      "Ġlowered": 7969,
      "Ġfriendships": 7970,
      "Ġshorts": 7971,
      "Ġhunters": 7972,
      "ĠMikey": 7973,
      "ĠFlap": 7974,
      "years": 7975,
      "Ġrows": 7976,
      "Ġexperien": 7977,
      "Ġencouragement": 7978,
      "Ġzigzags": 7979,
      "ĠChess": 7980,
      "Ġproper": 7981,
      "ĠElsa": 7982,
      "Ġmesmerized": 7983,
      "Ġoccas": 7984,
      "Ġscampered": 7985,
      "Mother": 7986,
      "Play": 7987,
      "Sw": 7988,
      "Speedy": 7989,
      "eel": 7990,
      "mates": 7991,
      "Ġborn": 7992,
      "inted": 7993,
      "erg": 7994,
      "aron": 7995,
      "atitude": 7996,
      "ĠSince": 7997,
      "Ġinj": 7998,
      "rie": 7999,
      "sty": 8000,
      "ĠLinda": 8001,
      "Ġforce": 8002,
      "Ġsoaking": 8003,
      "ĠAny": 8004,
      "Ġsculp": 8005,
      "Ġcarries": 8006,
      "ably": 8007,
      "Ġblast": 8008,
      "venir": 8009,
      "Ġglitt": 8010,
      "ĠPatch": 8011,
      "Ġfinal": 8012,
      "Ġheading": 8013,
      "Ġenjoyable": 8014,
      "Ġdelivery": 8015,
      "boards": 8016,
      "Ġmixture": 8017,
      "Ġunderstands": 8018,
      "Ġresisted": 8019,
      "Ġelbow": 8020,
      "Ġdespite": 8021,
      "Ġminding": 8022,
      "Ġchocolates": 8023,
      "ĠTruck": 8024,
      "Ġsqueezes": 8025,
      "Ġreminding": 8026,
      "Ġdestroying": 8027,
      "Ġpunishment": 8028,
      "Ġbothered": 8029,
      "Leave": 8030,
      "Ġflaps": 8031,
      "Ġfamiliar": 8032,
      "ĠAmanda": 8033,
      "ĠAmelia": 8034,
      "Ġsirens": 8035,
      "Ġmonths": 8036,
      "Ġrustling": 8037,
      "Ġmagnifying": 8038,
      "Ġmerma": 8039,
      "Ġsouvenir": 8040,
      "Ġsculpture": 8041,
      ",'": 8042,
      "Carl": 8043,
      "David": 8044,
      "Friends": 8045,
      "Jul": 8046,
      "Pandy": 8047,
      "Red": 8048,
      "Ray": 8049,
      "match": 8050,
      "ril": 8051,
      "worm": 8052,
      "Ġ5": 8053,
      "Ġtil": 8054,
      "Ġbless": 8055,
      "Ġfant": 8056,
      "ĠToys": 8057,
      "Ġgest": 8058,
      "ettle": 8059,
      "ntil": 8060,
      "rac": 8061,
      "Ġspice": 8062,
      "Ġexcept": 8063,
      "ĠJas": 8064,
      "ĠDay": 8065,
      "Ġnearly": 8066,
      "Ġgratitude": 8067,
      "Ġdears": 8068,
      "ĠJoanna": 8069,
      "ĠJojo": 8070,
      "Ġjoins": 8071,
      "Ġduckling": 8072,
      "Ġfloors": 8073,
      "Ġexplorer": 8074,
      "Ġstepping": 8075,
      "Instead": 8076,
      "Finn": 8077,
      "Ġcollap": 8078,
      "Ġspoonful": 8079,
      "Ġtidied": 8080,
      "Ġsqueaky": 8081,
      "Ġpicnics": 8082,
      "Ġgasp": 8083,
      "ivi": 8084,
      "Ġcombed": 8085,
      "Ġcosts": 8086,
      "ĠShark": 8087,
      "Ġedges": 8088,
      "Ġknocking": 8089,
      "Ġfiles": 8090,
      "Ġstomp": 8091,
      "Ġburying": 8092,
      "Ġawoke": 8093,
      "ĠYoga": 8094,
      "Ġinvites": 8095,
      "Ġappreciation": 8096,
      "Freddy": 8097,
      "Uncle": 8098,
      "ĠSofia": 8099,
      "ĠWonder": 8100,
      "Ġaisle": 8101,
      "Ġexperienced": 8102,
      "Bug": 8103,
      "Baa": 8104,
      "Hop": 8105,
      "Lizzy": 8106,
      "Mo": 8107,
      "Too": 8108,
      "iving": 8109,
      "nor": 8110,
      "Ġsens": 8111,
      "ĠTre": 8112,
      "rest": 8113,
      "Ġdate": 8114,
      "orking": 8115,
      "Ġplucked": 8116,
      "ĠTime": 8117,
      "ĠAna": 8118,
      "Ġscen": 8119,
      "Ġfaith": 8120,
      "Ġnewfound": 8121,
      "Ġbride": 8122,
      "abby": 8123,
      "Ġposit": 8124,
      "Ġmoat": 8125,
      "ĠCandy": 8126,
      "imbo": 8127,
      "ĠPh": 8128,
      "Ġdefe": 8129,
      "ĠGilly": 8130,
      "Ġdressing": 8131,
      "Ġdisc": 8132,
      "Afterwards": 8133,
      "ĠAllie": 8134,
      "ounced": 8135,
      "ĠTodd": 8136,
      "ipper": 8137,
      "ĠChomp": 8138,
      "ĠZoey": 8139,
      "Goodnight": 8140,
      "Ġcovering": 8141,
      "Ġminds": 8142,
      "Ġsqueaked": 8143,
      "Ġthicker": 8144,
      "Ġtempt": 8145,
      "Ġcrackers": 8146,
      "Ġsweep": 8147,
      "Ġyawning": 8148,
      "Ġoysters": 8149,
      "ĠYet": 8150,
      "Ġfloats": 8151,
      "Ġweapons": 8152,
      "Ġbrushing": 8153,
      "ĠJanie": 8154,
      "ĠSwim": 8155,
      "ĠWolf": 8156,
      "Ġtype": 8157,
      "ĠPrince": 8158,
      "Ġmatey": 8159,
      "Ġwrinkled": 8160,
      "Ġwaddled": 8161,
      "Ġcertain": 8162,
      "Ġencountered": 8163,
      "Ġfantastic": 8164,
      "Fifi": 8165,
      "Katie": 8166,
      "Open": 8167,
      "Zara": 8168,
      "jest": 8169,
      "lied": 8170,
      "Ġpoop": 8171,
      "Ġnasty": 8172,
      "Ġsax": 8173,
      "Ġgoo": 8174,
      "aty": 8175,
      "ĠHurricane": 8176,
      "Ġupside": 8177,
      "Ġshorter": 8178,
      "alth": 8179,
      "Ġgobbled": 8180,
      "Ġsadder": 8181,
      "ĠFly": 8182,
      "Ġcharge": 8183,
      "Ġpeac": 8184,
      "ĠElephant": 8185,
      "Ġtoward": 8186,
      "Ġenem": 8187,
      "ĠKip": 8188,
      "ĠPen": 8189,
      "sol": 8190,
      "Ġwarmly": 8191
    },
    "merges": [
      [
        "Ġ",
        "t"
      ],
      [
        "h",
        "e"
      ],
      [
        "Ġ",
        "a"
      ],
      [
        "Ġ",
        "s"
      ],
      [
        "Ġ",
        "w"
      ],
      [
        "n",
        "d"
      ],
      [
        "Ġt",
        "he"
      ],
      [
        "e",
        "d"
      ],
      [
        "Ġ",
        "b"
      ],
      [
        "Ġt",
        "o"
      ],
      [
        "Ġa",
        "nd"
      ],
      [
        "Ġ",
        "h"
      ],
      [
        "Ġ",
        "f"
      ],
      [
        "i",
        "n"
      ],
      [
        "Ġ",
        "T"
      ],
      [
        "Ġw",
        "a"
      ],
      [
        "r",
        "e"
      ],
      [
        "i",
        "t"
      ],
      [
        "o",
        "u"
      ],
      [
        "Ġ",
        "l"
      ],
      [
        "Ġ",
        "d"
      ],
      [
        "Ġ",
        "c"
      ],
      [
        "Ġ",
        "p"
      ],
      [
        "a",
        "y"
      ],
      [
        "Ġ",
        "m"
      ],
      [
        "e",
        "r"
      ],
      [
        "Ġwa",
        "s"
      ],
      [
        "o",
        "m"
      ],
      [
        "ĠT",
        "he"
      ],
      [
        "Ġ",
        "he"
      ],
      [
        "i",
        "s"
      ],
      [
        "Ġ",
        "n"
      ],
      [
        "a",
        "r"
      ],
      [
        "o",
        "n"
      ],
      [
        "i",
        "m"
      ],
      [
        "Ġs",
        "a"
      ],
      [
        "i",
        "d"
      ],
      [
        "l",
        "l"
      ],
      [
        "Ġh",
        "a"
      ],
      [
        "Ġ",
        "g"
      ],
      [
        "a",
        "t"
      ],
      [
        "Ġ",
        "S"
      ],
      [
        "in",
        "g"
      ],
      [
        "o",
        "t"
      ],
      [
        "e",
        "n"
      ],
      [
        "a",
        "n"
      ],
      [
        "l",
        "e"
      ],
      [
        "o",
        "r"
      ],
      [
        "i",
        "r"
      ],
      [
        "a",
        "m"
      ],
      [
        "e",
        "t"
      ],
      [
        "Ġ",
        "H"
      ],
      [
        "Ġ",
        "it"
      ],
      [
        "Ġt",
        "h"
      ],
      [
        "i",
        "g"
      ],
      [
        "ĠThe",
        "y"
      ],
      [
        "i",
        "l"
      ],
      [
        "Ġ",
        "in"
      ],
      [
        "Ġ",
        "\""
      ],
      [
        "Ġp",
        "l"
      ],
      [
        "ĠH",
        "e"
      ],
      [
        "o",
        "w"
      ],
      [
        "r",
        "i"
      ],
      [
        "v",
        "er"
      ],
      [
        "u",
        "t"
      ],
      [
        "Ġb",
        "e"
      ],
      [
        "Ġ",
        "u"
      ],
      [
        "Ġsa",
        "id"
      ],
      [
        "Ġpl",
        "ay"
      ],
      [
        "it",
        "h"
      ],
      [
        "Ġd",
        "ay"
      ],
      [
        "p",
        "p"
      ],
      [
        "Ġw",
        "ith"
      ],
      [
        "Ġ",
        "y"
      ],
      [
        "Ġ",
        "o"
      ],
      [
        "O",
        "n"
      ],
      [
        "o",
        "o"
      ],
      [
        "k",
        "ed"
      ],
      [
        "Ġ",
        "r"
      ],
      [
        "Ġhe",
        "r"
      ],
      [
        "c",
        "e"
      ],
      [
        "Ġ",
        "I"
      ],
      [
        "ĠS",
        "he"
      ],
      [
        "l",
        "d"
      ],
      [
        "ĠT",
        "im"
      ],
      [
        "Ġh",
        "is"
      ],
      [
        "Ġs",
        "t"
      ],
      [
        "k",
        "e"
      ],
      [
        "Ġ",
        "e"
      ],
      [
        "Ġb",
        "ig"
      ],
      [
        "c",
        "k"
      ],
      [
        "n",
        "t"
      ],
      [
        "Ġy",
        "ou"
      ],
      [
        "ver",
        "y"
      ],
      [
        "s",
        "t"
      ],
      [
        "v",
        "e"
      ],
      [
        "Ġ",
        "On"
      ],
      [
        "e",
        "nd"
      ],
      [
        "Ġ",
        "on"
      ],
      [
        "u",
        "n"
      ],
      [
        "Ġha",
        "pp"
      ],
      [
        "Ġ",
        "L"
      ],
      [
        "ri",
        "end"
      ],
      [
        "Ġf",
        "riend"
      ],
      [
        "a",
        "ll"
      ],
      [
        "il",
        "y"
      ],
      [
        "Ġthe",
        "y"
      ],
      [
        "Ġw",
        "e"
      ],
      [
        "Ġha",
        "d"
      ],
      [
        "Ġn",
        "ot"
      ],
      [
        "Ġu",
        "p"
      ],
      [
        "Ġl",
        "i"
      ],
      [
        "he",
        "r"
      ],
      [
        "Ġwa",
        "nt"
      ],
      [
        "Ġo",
        "f"
      ],
      [
        "a",
        "d"
      ],
      [
        "Ġ",
        "B"
      ],
      [
        "it",
        "t"
      ],
      [
        "s",
        "e"
      ],
      [
        "Ġd",
        "o"
      ],
      [
        "Ġ",
        "M"
      ],
      [
        "Ġhapp",
        "y"
      ],
      [
        "e",
        "s"
      ],
      [
        "en",
        "t"
      ],
      [
        "Ġ",
        "very"
      ],
      [
        "'",
        "s"
      ],
      [
        "Ġth",
        "at"
      ],
      [
        "Ġsa",
        "w"
      ],
      [
        "ou",
        "ld"
      ],
      [
        "Ġf",
        "or"
      ],
      [
        "Ġs",
        "h"
      ],
      [
        "Ġm",
        "om"
      ],
      [
        "itt",
        "le"
      ],
      [
        "Ġs",
        "o"
      ],
      [
        "Ġl",
        "ittle"
      ],
      [
        "Ġs",
        "he"
      ],
      [
        ".",
        "\""
      ],
      [
        "im",
        "e"
      ],
      [
        "Ġn",
        "e"
      ],
      [
        "c",
        "h"
      ],
      [
        "Ġn",
        "am"
      ],
      [
        "Ġt",
        "ime"
      ],
      [
        "Ġ",
        "k"
      ],
      [
        "ou",
        "nd"
      ],
      [
        "Ġthe",
        "re"
      ],
      [
        "ĠL",
        "ily"
      ],
      [
        "Ġnam",
        "ed"
      ],
      [
        "Ġs",
        "m"
      ],
      [
        "Ġwe",
        "re"
      ],
      [
        "Ġb",
        "o"
      ],
      [
        "!",
        "\""
      ],
      [
        "Ġwant",
        "ed"
      ],
      [
        "ĠT",
        "om"
      ],
      [
        "ou",
        "t"
      ],
      [
        "Ġfriend",
        "s"
      ],
      [
        "Ġb",
        "ut"
      ],
      [
        "T",
        "he"
      ],
      [
        "v",
        "ed"
      ],
      [
        "h",
        "t"
      ],
      [
        "e",
        "l"
      ],
      [
        "ir",
        "d"
      ],
      [
        "a",
        "ke"
      ],
      [
        "a",
        "l"
      ],
      [
        "Ġa",
        "n"
      ],
      [
        "Ġb",
        "ird"
      ],
      [
        "om",
        "e"
      ],
      [
        "u",
        "g"
      ],
      [
        "Ġto",
        "o"
      ],
      [
        "ĠI",
        "t"
      ],
      [
        "Ġw",
        "h"
      ],
      [
        "id",
        "e"
      ],
      [
        "Ġw",
        "ent"
      ],
      [
        "Ġhe",
        "l"
      ],
      [
        "ĠOn",
        "ce"
      ],
      [
        "Ġ",
        "is"
      ],
      [
        "u",
        "e"
      ],
      [
        "Ġa",
        "ll"
      ],
      [
        "Ġhel",
        "p"
      ],
      [
        "Ġ",
        "A"
      ],
      [
        "Ġl",
        "oo"
      ],
      [
        "Ġl",
        "o"
      ],
      [
        "Ġup",
        "on"
      ],
      [
        "r",
        "y"
      ],
      [
        "t",
        "er"
      ],
      [
        "o",
        "re"
      ],
      [
        "i",
        "ll"
      ],
      [
        "g",
        "et"
      ],
      [
        "Ġf",
        "un"
      ],
      [
        "i",
        "nd"
      ],
      [
        "ĠOn",
        "e"
      ],
      [
        "Ġto",
        "y"
      ],
      [
        "am",
        "e"
      ],
      [
        "Ġa",
        "s"
      ],
      [
        "Ġ",
        "j"
      ],
      [
        "Ġa",
        "t"
      ],
      [
        "Ġd",
        "id"
      ],
      [
        "r",
        "a"
      ],
      [
        "get",
        "her"
      ],
      [
        "u",
        "r"
      ],
      [
        "Ġ",
        "re"
      ],
      [
        "Ġto",
        "gether"
      ],
      [
        "Ġs",
        "e"
      ],
      [
        "a",
        "ck"
      ],
      [
        "Ġt",
        "re"
      ],
      [
        "Ġc",
        "at"
      ],
      [
        "l",
        "y"
      ],
      [
        "oo",
        "d"
      ],
      [
        "i",
        "c"
      ],
      [
        "Ġdo",
        "g"
      ],
      [
        "t",
        "ed"
      ],
      [
        "Ġc",
        "ould"
      ],
      [
        "Ġc",
        "an"
      ],
      [
        "Ġthe",
        "ir"
      ],
      [
        "ar",
        "d"
      ],
      [
        "ar",
        "k"
      ],
      [
        "?",
        "\""
      ],
      [
        "e",
        "c"
      ],
      [
        "Ġg",
        "ir"
      ],
      [
        "Ġh",
        "im"
      ],
      [
        "Ġplay",
        "ed"
      ],
      [
        "Ġgir",
        "l"
      ],
      [
        "'",
        "t"
      ],
      [
        "Ġb",
        "all"
      ],
      [
        "w",
        "ay"
      ],
      [
        "Ġg",
        "o"
      ],
      [
        "m",
        "y"
      ],
      [
        "Ġr",
        "o"
      ],
      [
        "Ġa",
        "re"
      ],
      [
        "he",
        "d"
      ],
      [
        "Ġ",
        "out"
      ],
      [
        "a",
        "in"
      ],
      [
        "Ġk",
        "n"
      ],
      [
        "he",
        "n"
      ],
      [
        "a",
        "x"
      ],
      [
        "Ġl",
        "e"
      ],
      [
        "Ġf",
        "r"
      ],
      [
        "Ġthe",
        "m"
      ],
      [
        "u",
        "m"
      ],
      [
        "Ġsa",
        "d"
      ],
      [
        "Ġtre",
        "e"
      ],
      [
        "u",
        "l"
      ],
      [
        "Ġha",
        "ve"
      ],
      [
        "Ġbo",
        "y"
      ],
      [
        "Ġc",
        "l"
      ],
      [
        "ot",
        "her"
      ],
      [
        "Ġm",
        "an"
      ],
      [
        "Ġlo",
        "ved"
      ],
      [
        "Ġloo",
        "ked"
      ],
      [
        "ou",
        "g"
      ],
      [
        "Ġf",
        "ound"
      ],
      [
        "Ġs",
        "p"
      ],
      [
        "Ġst",
        "ar"
      ],
      [
        "on",
        "e"
      ],
      [
        "ĠS",
        "ue"
      ],
      [
        "h",
        "ing"
      ],
      [
        "ĠM",
        "ax"
      ],
      [
        "Ġs",
        "c"
      ],
      [
        "Ġb",
        "ack"
      ],
      [
        "ow",
        "n"
      ],
      [
        "Ġli",
        "ke"
      ],
      [
        "a",
        "re"
      ],
      [
        "Ġm",
        "e"
      ],
      [
        "s",
        "ide"
      ],
      [
        "f",
        "ul"
      ],
      [
        "Ġbe",
        "c"
      ],
      [
        "On",
        "e"
      ],
      [
        "on",
        "g"
      ],
      [
        "ig",
        "ht"
      ],
      [
        "Ġp",
        "ark"
      ],
      [
        "Ġc",
        "ar"
      ],
      [
        "el",
        "t"
      ],
      [
        "Ġw",
        "ould"
      ],
      [
        "o",
        "p"
      ],
      [
        "Ġli",
        "ked"
      ],
      [
        "r",
        "ound"
      ],
      [
        "Ġm",
        "ake"
      ],
      [
        "Ġl",
        "a"
      ],
      [
        "Y",
        "ou"
      ],
      [
        "Ġf",
        "elt"
      ],
      [
        "Ġ",
        "W"
      ],
      [
        "ĠB",
        "en"
      ],
      [
        "Ġse",
        "e"
      ],
      [
        "Ġf",
        "a"
      ],
      [
        "e",
        "ll"
      ],
      [
        "om",
        "et"
      ],
      [
        "ĠB",
        "ut"
      ],
      [
        "Ġn",
        "o"
      ],
      [
        "ou",
        "se"
      ],
      [
        "a",
        "g"
      ],
      [
        "ĠS",
        "am"
      ],
      [
        "Ġne",
        "w"
      ],
      [
        "Ġas",
        "ked"
      ],
      [
        "Ġstar",
        "ted"
      ],
      [
        "ar",
        "ed"
      ],
      [
        "i",
        "ce"
      ],
      [
        "Ġc",
        "ame"
      ],
      [
        "Ġa",
        "l"
      ],
      [
        "il",
        "ed"
      ],
      [
        "Ġ",
        "other"
      ],
      [
        "oug",
        "ht"
      ],
      [
        "Ġs",
        "omet"
      ],
      [
        "Ġa",
        "g"
      ],
      [
        "Ġg",
        "ood"
      ],
      [
        "s",
        "s"
      ],
      [
        "Ġs",
        "ay"
      ],
      [
        "Ġsm",
        "all"
      ],
      [
        "Ġsm",
        "iled"
      ],
      [
        "Ġb",
        "r"
      ],
      [
        "ad",
        "e"
      ],
      [
        "ri",
        "ed"
      ],
      [
        "ing",
        "s"
      ],
      [
        "o",
        "b"
      ],
      [
        "p",
        "ot"
      ],
      [
        "Ġe",
        "x"
      ],
      [
        "Ġw",
        "or"
      ],
      [
        "Ġa",
        "way"
      ],
      [
        "Ġp",
        "ut"
      ],
      [
        "Ġf",
        "ind"
      ],
      [
        "t",
        "y"
      ],
      [
        "Ġm",
        "ade"
      ],
      [
        "Ġwh",
        "at"
      ],
      [
        "Ġsomet",
        "hing"
      ],
      [
        "Ġc",
        "o"
      ],
      [
        "Ġh",
        "ome"
      ],
      [
        "en",
        "ed"
      ],
      [
        "Ġth",
        "ought"
      ],
      [
        "Ġfr",
        "om"
      ],
      [
        "Ġ",
        "J"
      ],
      [
        "Ġwa",
        "l"
      ],
      [
        "Ġplay",
        "ing"
      ],
      [
        "i",
        "a"
      ],
      [
        "oo",
        "k"
      ],
      [
        "Ġe",
        "very"
      ],
      [
        "a",
        "ch"
      ],
      [
        "Ġm",
        "u"
      ],
      [
        "ĠS",
        "pot"
      ],
      [
        "u",
        "c"
      ],
      [
        "Ġr",
        "an"
      ],
      [
        "ar",
        "n"
      ],
      [
        "Ġ",
        "F"
      ],
      [
        "i",
        "e"
      ],
      [
        "i",
        "le"
      ],
      [
        "d",
        "d"
      ],
      [
        "Ġag",
        "ain"
      ],
      [
        "Ġs",
        "ome"
      ],
      [
        "Ġh",
        "ouse"
      ],
      [
        "Ġd",
        "own"
      ],
      [
        "a",
        "ve"
      ],
      [
        "k",
        "ing"
      ],
      [
        "Ġla",
        "ug"
      ],
      [
        "u",
        "re"
      ],
      [
        "Ġsc",
        "ared"
      ],
      [
        "n",
        "y"
      ],
      [
        "Ġf",
        "l"
      ],
      [
        "Ġtoo",
        "k"
      ],
      [
        "e",
        "p"
      ],
      [
        "i",
        "f"
      ],
      [
        "i",
        "ck"
      ],
      [
        "Ġp",
        "r"
      ],
      [
        "Ġw",
        "ill"
      ],
      [
        "Ġ",
        "You"
      ],
      [
        "Ġbo",
        "x"
      ],
      [
        "Ġa",
        "round"
      ],
      [
        "Ġle",
        "arn"
      ],
      [
        "a",
        "b"
      ],
      [
        "Ġb",
        "l"
      ],
      [
        "Ġtoy",
        "s"
      ],
      [
        "re",
        "t"
      ],
      [
        "Ġm",
        "y"
      ],
      [
        "Ġth",
        "ings"
      ],
      [
        "Ġyou",
        "r"
      ],
      [
        ",",
        "\""
      ],
      [
        "ou",
        "d"
      ],
      [
        "Ġs",
        "un"
      ],
      [
        "is",
        "h"
      ],
      [
        "Ġw",
        "hen"
      ],
      [
        "Ġli",
        "ved"
      ],
      [
        "Ġthe",
        "n"
      ],
      [
        "Ġs",
        "w"
      ],
      [
        "Ġf",
        "e"
      ],
      [
        "u",
        "ck"
      ],
      [
        "a",
        "s"
      ],
      [
        "pp",
        "ed"
      ],
      [
        "Ġc",
        "h"
      ],
      [
        "Ġa",
        "b"
      ],
      [
        "an",
        "k"
      ],
      [
        "u",
        "s"
      ],
      [
        "Ġg",
        "et"
      ],
      [
        "ĠM",
        "ia"
      ],
      [
        "uc",
        "y"
      ],
      [
        "Ġl",
        "ot"
      ],
      [
        "ot",
        "h"
      ],
      [
        "um",
        "p"
      ],
      [
        "T",
        "h"
      ],
      [
        "a",
        "p"
      ],
      [
        "is",
        "t"
      ],
      [
        "Ġsay",
        "s"
      ],
      [
        "it",
        "ed"
      ],
      [
        "Ġkn",
        "ow"
      ],
      [
        "Ġt",
        "ried"
      ],
      [
        "Ġwh",
        "o"
      ],
      [
        "T",
        "im"
      ],
      [
        "Ġg",
        "ot"
      ],
      [
        "u",
        "st"
      ],
      [
        "e",
        "w"
      ],
      [
        "nd",
        "er"
      ],
      [
        "Ġman",
        "y"
      ],
      [
        "Ġin",
        "t"
      ],
      [
        "Ġab",
        "out"
      ],
      [
        "Ġp",
        "ret"
      ],
      [
        "Ġ",
        "D"
      ],
      [
        "is",
        "e"
      ],
      [
        "Ġan",
        "y"
      ],
      [
        "Ġd",
        "ec"
      ],
      [
        "i",
        "ve"
      ],
      [
        "Ġm",
        "ore"
      ],
      [
        "Ġkn",
        "ew"
      ],
      [
        "Ġp",
        "ic"
      ],
      [
        "ou",
        "s"
      ],
      [
        "q",
        "u"
      ],
      [
        "Ġh",
        "ug"
      ],
      [
        "Ġr",
        "ed"
      ],
      [
        "a",
        "ce"
      ],
      [
        "Ġp",
        "o"
      ],
      [
        "Ġc",
        "are"
      ],
      [
        "all",
        "y"
      ],
      [
        "ĠL",
        "ucy"
      ],
      [
        "Ġ",
        "v"
      ],
      [
        "Ġwa",
        "ter"
      ],
      [
        "Ġbe",
        "st"
      ],
      [
        "a",
        "u"
      ],
      [
        "ur",
        "p"
      ],
      [
        "Ġbec",
        "ame"
      ],
      [
        "Ġex",
        "c"
      ],
      [
        "f",
        "ter"
      ],
      [
        "Ġlearn",
        "ed"
      ],
      [
        "way",
        "s"
      ],
      [
        "Ġo",
        "p"
      ],
      [
        "au",
        "se"
      ],
      [
        "Ġal",
        "ways"
      ],
      [
        "ĠB",
        "ob"
      ],
      [
        "Ġout",
        "side"
      ],
      [
        "Ġloo",
        "k"
      ],
      [
        "Ġsh",
        "ow"
      ],
      [
        "Ġlaug",
        "hed"
      ],
      [
        "Ġg",
        "re"
      ],
      [
        "Ġh",
        "o"
      ],
      [
        "Ġdec",
        "id"
      ],
      [
        "Ġu",
        "n"
      ],
      [
        "Ġro",
        "om"
      ],
      [
        "ĠM",
        "om"
      ],
      [
        "Ġe",
        "at"
      ],
      [
        "Ġdecid",
        "ed"
      ],
      [
        "Ġb",
        "oth"
      ],
      [
        "Ġbec",
        "ause"
      ],
      [
        "ĠS",
        "o"
      ],
      [
        "ĠA",
        "nd"
      ],
      [
        "an",
        "t"
      ],
      [
        "Ġint",
        "o"
      ],
      [
        "it",
        "e"
      ],
      [
        "f",
        "e"
      ],
      [
        "Ġj",
        "ump"
      ],
      [
        "er",
        "s"
      ],
      [
        "u",
        "dd"
      ],
      [
        "Ġ",
        "ke"
      ],
      [
        "The",
        "y"
      ],
      [
        "Ġexc",
        "ited"
      ],
      [
        "Ġp",
        "e"
      ],
      [
        "Ġd",
        "ad"
      ],
      [
        "Ġon",
        "e"
      ],
      [
        "Ġth",
        "is"
      ],
      [
        "n",
        "n"
      ],
      [
        "Ġn",
        "ice"
      ],
      [
        "L",
        "ily"
      ],
      [
        "Ġfa",
        "st"
      ],
      [
        "Ġr",
        "un"
      ],
      [
        "Ġl",
        "ong"
      ],
      [
        "Y",
        "es"
      ],
      [
        "Ġ",
        "E"
      ],
      [
        "Ġfe",
        "el"
      ],
      [
        "urp",
        "r"
      ],
      [
        "ou",
        "r"
      ],
      [
        "Ġs",
        "k"
      ],
      [
        "Ġs",
        "urpr"
      ],
      [
        "Ġa",
        "m"
      ],
      [
        "Ġto",
        "ld"
      ],
      [
        "u",
        "ll"
      ],
      [
        "in",
        "k"
      ],
      [
        "Ġin",
        "side"
      ],
      [
        "in",
        "y"
      ],
      [
        "Ġm",
        "o"
      ],
      [
        "Ġt",
        "r"
      ],
      [
        "Ġpret",
        "ty"
      ],
      [
        "Ġs",
        "or"
      ],
      [
        "Ġg",
        "ra"
      ],
      [
        "Ġt",
        "ake"
      ],
      [
        "Ġs",
        "l"
      ],
      [
        "W",
        "h"
      ],
      [
        "Ġe",
        "ach"
      ],
      [
        "nn",
        "a"
      ],
      [
        "le",
        "w"
      ],
      [
        "Ġro",
        "ck"
      ],
      [
        "Ġmu",
        "ch"
      ],
      [
        "g",
        "ed"
      ],
      [
        "o",
        "g"
      ],
      [
[...]
